const unsigned char emg40_model[] = {
  0x1c, 0x00, 0x00, 0x00, 0x54, 0x46, 0x4c, 0x33, 0x14, 0x00, 0x20, 0x00, 
  0x1c, 0x00, 0x18, 0x00, 0x14, 0x00, 0x10, 0x00, 0x0c, 0x00, 0x00, 0x00, 
  0x08, 0x00, 0x04, 0x00, 0x14, 0x00, 0x00, 0x00, 0x1c, 0x00, 0x00, 0x00, 
  0x8c, 0x00, 0x00, 0x00, 0xe4, 0x00, 0x00, 0x00, 0x48, 0x0f, 0x00, 0x00, 
  0x58, 0x0f, 0x00, 0x00, 0x00, 0x1e, 0x00, 0x00, 0x03, 0x00, 0x00, 0x00, 
  0x01, 0x00, 0x00, 0x00, 0x04, 0x00, 0x00, 0x00, 0x86, 0xef, 0xff, 0xff, 
  0x0c, 0x00, 0x00, 0x00, 0x1c, 0x00, 0x00, 0x00, 0x3c, 0x00, 0x00, 0x00, 
  0x0f, 0x00, 0x00, 0x00, 0x73, 0x65, 0x72, 0x76, 0x69, 0x6e, 0x67, 0x5f, 
  0x64, 0x65, 0x66, 0x61, 0x75, 0x6c, 0x74, 0x00, 0x01, 0x00, 0x00, 0x00, 
  0x04, 0x00, 0x00, 0x00, 0x90, 0xff, 0xff, 0xff, 0x11, 0x00, 0x00, 0x00, 
  0x04, 0x00, 0x00, 0x00, 0x08, 0x00, 0x00, 0x00, 0x6f, 0x75, 0x74, 0x70, 
  0x75, 0x74, 0x5f, 0x30, 0x00, 0x00, 0x00, 0x00, 0x01, 0x00, 0x00, 0x00, 
  0x04, 0x00, 0x00, 0x00, 0x8e, 0xef, 0xff, 0xff, 0x04, 0x00, 0x00, 0x00, 
  0x0c, 0x00, 0x00, 0x00, 0x6b, 0x65, 0x72, 0x61, 0x73, 0x5f, 0x74, 0x65, 
  0x6e, 0x73, 0x6f, 0x72, 0x00, 0x00, 0x00, 0x00, 0x02, 0x00, 0x00, 0x00, 
  0x34, 0x00, 0x00, 0x00, 0x04, 0x00, 0x00, 0x00, 0xdc, 0xff, 0xff, 0xff, 
  0x14, 0x00, 0x00, 0x00, 0x04, 0x00, 0x00, 0x00, 0x13, 0x00, 0x00, 0x00, 
  0x43, 0x4f, 0x4e, 0x56, 0x45, 0x52, 0x53, 0x49, 0x4f, 0x4e, 0x5f, 0x4d, 
  0x45, 0x54, 0x41, 0x44, 0x41, 0x54, 0x41, 0x00, 0x08, 0x00, 0x0c, 0x00, 
  0x08, 0x00, 0x04, 0x00, 0x08, 0x00, 0x00, 0x00, 0x13, 0x00, 0x00, 0x00, 
  0x04, 0x00, 0x00, 0x00, 0x13, 0x00, 0x00, 0x00, 0x6d, 0x69, 0x6e, 0x5f, 
  0x72, 0x75, 0x6e, 0x74, 0x69, 0x6d, 0x65, 0x5f, 0x76, 0x65, 0x72, 0x73, 
  0x69, 0x6f, 0x6e, 0x00, 0x15, 0x00, 0x00, 0x00, 0x60, 0x0e, 0x00, 0x00, 
  0x58, 0x0e, 0x00, 0x00, 0x44, 0x0e, 0x00, 0x00, 0x30, 0x0e, 0x00, 0x00, 
  0x1c, 0x0e, 0x00, 0x00, 0x04, 0x0e, 0x00, 0x00, 0xd4, 0x0d, 0x00, 0x00, 
  0x84, 0x0d, 0x00, 0x00, 0x74, 0x0b, 0x00, 0x00, 0xe4, 0x0a, 0x00, 0x00, 
  0xd4, 0x00, 0x00, 0x00, 0xcc, 0x00, 0x00, 0x00, 0xc4, 0x00, 0x00, 0x00, 
  0xbc, 0x00, 0x00, 0x00, 0xb4, 0x00, 0x00, 0x00, 0xac, 0x00, 0x00, 0x00, 
  0xa4, 0x00, 0x00, 0x00, 0x9c, 0x00, 0x00, 0x00, 0x94, 0x00, 0x00, 0x00, 
  0x74, 0x00, 0x00, 0x00, 0x04, 0x00, 0x00, 0x00, 0x5e, 0xf0, 0xff, 0xff, 
  0x04, 0x00, 0x00, 0x00, 0x60, 0x00, 0x00, 0x00, 0x0c, 0x00, 0x00, 0x00, 
  0x08, 0x00, 0x0e, 0x00, 0x08, 0x00, 0x04, 0x00, 0x08, 0x00, 0x00, 0x00, 
  0x10, 0x00, 0x00, 0x00, 0x28, 0x00, 0x00, 0x00, 0x00, 0x00, 0x06, 0x00, 
  0x08, 0x00, 0x04, 0x00, 0x06, 0x00, 0x00, 0x00, 0x04, 0x00, 0x00, 0x00, 
  0x01, 0x00, 0x00, 0x00, 0xeb, 0x03, 0x00, 0x00, 0x0c, 0x00, 0x18, 0x00, 
  0x14, 0x00, 0x10, 0x00, 0x0c, 0x00, 0x04, 0x00, 0x0c, 0x00, 0x00, 0x00, 
  0xb6, 0xd7, 0xd4, 0x90, 0x67, 0x2c, 0xd1, 0xca, 0x02, 0x00, 0x00, 0x00, 
  0x02, 0x00, 0x00, 0x00, 0x04, 0x00, 0x00, 0x00, 0x06, 0x00, 0x00, 0x00, 
  0x32, 0x2e, 0x32, 0x30, 0x2e, 0x30, 0x00, 0x00, 0xca, 0xf0, 0xff, 0xff, 
  0x04, 0x00, 0x00, 0x00, 0x10, 0x00, 0x00, 0x00, 0x31, 0x2e, 0x31, 0x34, 
  0x2e, 0x30, 0x00, 0x00, 0x00, 0x00, 0x00, 0x00, 0x00, 0x00, 0x00, 0x00, 
  0x84, 0xe4, 0xff, 0xff, 0x88, 0xe4, 0xff, 0xff, 0x8c, 0xe4, 0xff, 0xff, 
  0x90, 0xe4, 0xff, 0xff, 0x94, 0xe4, 0xff, 0xff, 0x98, 0xe4, 0xff, 0xff, 
  0x9c, 0xe4, 0xff, 0xff, 0xa0, 0xe4, 0xff, 0xff, 0x06, 0xf1, 0xff, 0xff, 
  0x04, 0x00, 0x00, 0x00, 0x00, 0x0a, 0x00, 0x00, 0xe1, 0xe0, 0xf6, 0xaa, 
  0x01, 0xab, 0xd1, 0xc4, 0xf3, 0xe5, 0xfe, 0x4c, 0xcf, 0x43, 0xf3, 0xf4, 
  0x04, 0x6f, 0x4b, 0x55, 0x03, 0xb3, 0x81, 0x0f, 0xc0, 0xe2, 0x54, 0x28, 
  0xdf, 0xa4, 0x66, 0x12, 0xf1, 0xac, 0xc4, 0xc1, 0x78, 0x8f, 0xab, 0xa4, 
  0x12, 0xdc, 0xb6, 0x9e, 0xc0, 0xe9, 0x39, 0xc0, 0xd9, 0x5c, 0xab, 0x2c, 
  0xf8, 0x5c, 0x51, 0x3a, 0xa6, 0x4c, 0xff, 0xe6, 0x52, 0xd6, 0x4f, 0x14, 
  0xc1, 0x07, 0xd1, 0x39, 0xcc, 0xd2, 0xfc, 0x5f, 0x29, 0x1f, 0xff, 0x18, 
  0x23, 0xa3, 0xbc, 0x23, 0xdc, 0x0c, 0xde, 0xd4, 0xf8, 0xea, 0xf9, 0x15, 
  0xaa, 0xe2, 0xe2, 0xa7, 0xef, 0xa3, 0x2f, 0xb9, 0xa5, 0xf2, 0xfd, 0x09, 
  0xef, 0x3b, 0x32, 0xe2, 0xee, 0xca, 0x0f, 0xd0, 0x2d, 0xee, 0x1c, 0xef, 
  0x4a, 0x10, 0xce, 0xe3, 0xb3, 0xc8, 0xad, 0x3b, 0xb9, 0xe6, 0xd4, 0x2c, 
  0x01, 0x5d, 0x0a, 0xec, 0x0e, 0xfe, 0x27, 0xaf, 0x1e, 0x81, 0x02, 0xe6, 
  0x69, 0x17, 0x4c, 0x01, 0xba, 0xf1, 0xa9, 0xcd, 0x43, 0xa6, 0x2a, 0xce, 
  0x1b, 0xcd, 0xe8, 0x37, 0x34, 0x1b, 0xed, 0x4f, 0x47, 0xf2, 0x30, 0xe9, 
  0x11, 0xc5, 0x04, 0x81, 0x3a, 0xee, 0x03, 0x0c, 0xe6, 0x1c, 0xda, 0x2c, 
  0x0f, 0x69, 0x08, 0xa9, 0x0f, 0x1a, 0xf6, 0x32, 0x78, 0xbb, 0x0a, 0xdd, 
  0xca, 0xc5, 0x09, 0x20, 0x0a, 0xc9, 0xa9, 0xab, 0xba, 0x3a, 0xa7, 0x3d, 
  0xc7, 0x33, 0xcc, 0xd4, 0x50, 0x3b, 0x3a, 0xab, 0xcd, 0x4d, 0xcb, 0xbe, 
  0x0a, 0x37, 0x12, 0x03, 0xc2, 0x12, 0x94, 0x29, 0x28, 0x16, 0x1e, 0x23, 
  0xea, 0xdb, 0x02, 0xe4, 0x10, 0x25, 0xfc, 0x0d, 0xa6, 0x1b, 0xd9, 0xe7, 
  0x8d, 0x95, 0xe5, 0x15, 0x6d, 0xf3, 0x2e, 0xc3, 0xf0, 0xb2, 0x2a, 0x2d, 
  0x27, 0x16, 0xfe, 0x0d, 0xc3, 0xb6, 0xa4, 0xe7, 0xfa, 0x52, 0x59, 0xe0, 
  0xa1, 0xe7, 0xa9, 0x01, 0x10, 0xe8, 0xce, 0x33, 0x50, 0xd3, 0xf9, 0x56, 
  0xed, 0x6a, 0xe0, 0x27, 0xab, 0x35, 0xc6, 0x17, 0xe4, 0xf3, 0xf3, 0x3b, 
  0x37, 0x5f, 0x3e, 0xe3, 0x5f, 0x59, 0x66, 0xfb, 0x18, 0x4d, 0x09, 0xb9, 
  0xc9, 0xeb, 0x22, 0xf2, 0x0b, 0xf8, 0x15, 0xa8, 0x5b, 0x73, 0x1d, 0xda, 
  0xe6, 0x3d, 0xa2, 0x23, 0x4a, 0x34, 0x7f, 0xec, 0x37, 0x1a, 0xf9, 0x13, 
  0x35, 0xb5, 0xe6, 0xce, 0xe5, 0x45, 0xce, 0x15, 0x44, 0x0c, 0xef, 0xef, 
  0x58, 0xe3, 0x56, 0x1a, 0xff, 0x4f, 0xbf, 0x14, 0x2e, 0xd4, 0x0b, 0xbc, 
  0xc3, 0x95, 0xf5, 0xf9, 0x0f, 0xdd, 0xe1, 0x13, 0x04, 0x9c, 0x31, 0xad, 
  0x06, 0xb4, 0xbe, 0x24, 0x7f, 0xdc, 0xee, 0xb3, 0xe9, 0x85, 0xb4, 0xcf, 
  0x48, 0x1a, 0x22, 0x27, 0xec, 0x3f, 0xf8, 0x24, 0x4e, 0xc7, 0x11, 0xd7, 
  0xe6, 0x1f, 0xda, 0xf6, 0xd9, 0xd5, 0x2a, 0xf6, 0xef, 0xe7, 0xe1, 0x00, 
  0x07, 0x95, 0x98, 0xc0, 0x14, 0x50, 0xe9, 0xe5, 0xe5, 0xb3, 0xe3, 0x0e, 
  0x21, 0xc6, 0x31, 0xcc, 0xfb, 0x2c, 0x17, 0xd4, 0x19, 0xdd, 0xfd, 0x06, 
  0xc8, 0x4d, 0x40, 0xe6, 0x49, 0xf2, 0x26, 0xf8, 0xda, 0xe2, 0x27, 0x64, 
  0xbc, 0x95, 0xda, 0xf8, 0xe7, 0xbc, 0x08, 0x25, 0xbb, 0x01, 0xc4, 0xcf, 
  0x11, 0x0f, 0x21, 0xf3, 0x46, 0xd4, 0xe3, 0xf1, 0x49, 0xc8, 0x36, 0xdd, 
  0xf0, 0xe0, 0xdf, 0x45, 0xc8, 0x0b, 0x0c, 0x4d, 0x16, 0xda, 0x2d, 0x1a, 
  0xdb, 0xe7, 0xb1, 0xcc, 0xeb, 0x1a, 0xbb, 0xf3, 0xe0, 0xf3, 0x4e, 0x27, 
  0x2b, 0xc0, 0x81, 0xea, 0xb0, 0xd2, 0xc3, 0xea, 0x8f, 0x2e, 0xc9, 0xf3, 
  0x4b, 0xbb, 0xf7, 0x53, 0xcb, 0xfc, 0xfd, 0x1d, 0x25, 0x15, 0x1d, 0x3d, 
  0x35, 0x05, 0x2b, 0x39, 0xbc, 0x19, 0xd8, 0x27, 0x4f, 0x3c, 0xf4, 0xdc, 
  0xca, 0x13, 0xea, 0xf1, 0xd1, 0x14, 0xee, 0xf6, 0xdd, 0x01, 0x32, 0xa4, 
  0xf4, 0xe3, 0x96, 0xbb, 0xef, 0xb3, 0x12, 0xb6, 0x3b, 0xfa, 0x27, 0xd4, 
  0xfb, 0xd0, 0xc5, 0x81, 0xfa, 0x99, 0x38, 0xcb, 0x63, 0x29, 0xc6, 0xd8, 
  0x14, 0xa7, 0x8c, 0x44, 0xdb, 0x19, 0x16, 0x12, 0x27, 0x2c, 0x02, 0xf4, 
  0xf3, 0x32, 0x1c, 0xf3, 0x07, 0x2b, 0x20, 0xb2, 0x06, 0x5f, 0x02, 0x53, 
  0x06, 0xf8, 0x03, 0xa6, 0x11, 0x36, 0x44, 0xa4, 0xcc, 0x59, 0xf8, 0x1b, 
  0xb6, 0xe5, 0xc3, 0x05, 0xcc, 0x17, 0xef, 0xd8, 0xc7, 0x92, 0x1c, 0xc3, 
  0x36, 0x1d, 0x0d, 0x81, 0xf2, 0x3f, 0xfa, 0xd7, 0x01, 0xb5, 0x37, 0x48, 
  0xfb, 0x15, 0xd9, 0xbf, 0xc5, 0x10, 0x82, 0xc6, 0x08, 0x09, 0x2a, 0x49, 
  0x09, 0xdf, 0x05, 0x65, 0x31, 0x99, 0xe6, 0xa4, 0x37, 0xb8, 0x2e, 0xc7, 
  0x0d, 0x03, 0x09, 0x2a, 0x00, 0xdb, 0x17, 0x23, 0x26, 0xe2, 0x49, 0x1c, 
  0x44, 0x22, 0xf3, 0xbf, 0xac, 0x27, 0x81, 0xf4, 0x09, 0x1b, 0xad, 0xe7, 
  0xd8, 0xc4, 0xd0, 0xe5, 0x2b, 0x55, 0xf1, 0xee, 0x39, 0xce, 0x1f, 0x42, 
  0xee, 0x7d, 0x40, 0x17, 0xf2, 0xdd, 0x2b, 0xf5, 0xe3, 0x23, 0x24, 0xfb, 
  0x49, 0xf9, 0xd8, 0x40, 0x1f, 0xdb, 0xcd, 0x69, 0x4c, 0x06, 0xef, 0xb2, 
  0x66, 0x01, 0x76, 0x23, 0xa3, 0x29, 0x25, 0x2e, 0xe3, 0x4a, 0xf5, 0x24, 
  0xd1, 0xd3, 0xf4, 0x1a, 0x37, 0x0d, 0x4f, 0xa2, 0xa5, 0xdb, 0x0b, 0x1e, 
  0x44, 0x95, 0x82, 0xab, 0x3e, 0x39, 0xcf, 0x23, 0x05, 0xf3, 0x26, 0x47, 
  0xe8, 0x35, 0xd0, 0x6f, 0xc3, 0x33, 0xea, 0x2e, 0x50, 0x60, 0x1e, 0xf5, 
  0xde, 0xc3, 0x37, 0x03, 0xfb, 0x00, 0x4c, 0xdd, 0x16, 0x11, 0xda, 0x45, 
  0xdd, 0xd5, 0x25, 0x01, 0x48, 0xfb, 0x12, 0xaa, 0xd3, 0xaf, 0x2d, 0x8e, 
  0x02, 0xbc, 0x83, 0x1e, 0x15, 0x71, 0xef, 0x38, 0x97, 0xaf, 0xc7, 0xc7, 
  0xbf, 0x22, 0x6b, 0x0e, 0x18, 0x16, 0x12, 0x0a, 0xd1, 0x6b, 0xde, 0x81, 
  0xb7, 0xe9, 0xbd, 0x20, 0x97, 0xd7, 0x8d, 0xdb, 0xc2, 0x1f, 0x36, 0x41, 
  0x6a, 0x0e, 0xf1, 0xef, 0x55, 0x48, 0x77, 0x5b, 0xf9, 0x9a, 0x69, 0x92, 
  0x19, 0xd8, 0xfa, 0x42, 0x37, 0xfd, 0x7f, 0xb5, 0xf0, 0xf6, 0x2a, 0x18, 
  0x48, 0xfe, 0x55, 0xc9, 0x22, 0xff, 0xc9, 0x24, 0x46, 0x06, 0xca, 0xb8, 
  0x5b, 0xfe, 0x5a, 0xcd, 0xf7, 0x3c, 0xb1, 0x0e, 0xcf, 0xf1, 0xe9, 0x42, 
  0xdf, 0x41, 0xec, 0x4b, 0x2e, 0xde, 0xf0, 0x1e, 0xe6, 0x02, 0x1d, 0x49, 
  0xf0, 0xc3, 0xb0, 0xca, 0x0f, 0xf0, 0x55, 0x0e, 0x14, 0xc3, 0x1c, 0x4b, 
  0x20, 0xf6, 0x09, 0x13, 0xd8, 0xcb, 0xb4, 0xe3, 0x8d, 0xa9, 0x30, 0x00, 
  0xe2, 0x20, 0xef, 0x22, 0x35, 0x4b, 0x5f, 0x17, 0x54, 0x65, 0x0d, 0x07, 
  0xe2, 0x3f, 0x1c, 0x21, 0x86, 0xd3, 0xec, 0x0b, 0x59, 0xeb, 0x38, 0xe7, 
  0xf7, 0x7f, 0xa7, 0xdf, 0xe7, 0x6d, 0xfc, 0xd8, 0x07, 0x1b, 0xec, 0x3c, 
  0xe1, 0xdb, 0xc4, 0xf0, 0x61, 0x3a, 0xfc, 0x04, 0x5e, 0x34, 0xfa, 0xcf, 
  0x0e, 0xf7, 0xed, 0x5d, 0xe1, 0x30, 0x2b, 0x66, 0xe6, 0x4f, 0x08, 0xda, 
  0x5a, 0xd7, 0x2b, 0x04, 0xee, 0x11, 0x27, 0xb2, 0xfc, 0xe9, 0xb1, 0xff, 
  0x04, 0xb6, 0x3d, 0x20, 0xbf, 0x53, 0xea, 0xed, 0xe1, 0xd4, 0x04, 0x5d, 
  0x16, 0x2b, 0xbb, 0xd0, 0xcb, 0xc3, 0x2c, 0x28, 0xae, 0x16, 0x7e, 0x20, 
  0xae, 0x42, 0xa9, 0xdb, 0x5b, 0xb6, 0x4e, 0x1c, 0xee, 0x1d, 0xf1, 0xfa, 
  0xb5, 0xb6, 0x29, 0x41, 0x1e, 0xf8, 0x44, 0x5a, 0xc9, 0x1b, 0x1f, 0xae, 
  0x3b, 0x9a, 0xcc, 0x15, 0x05, 0xfd, 0x5d, 0xfb, 0x09, 0xee, 0xc7, 0xc8, 
  0x39, 0xf4, 0xda, 0x24, 0x2f, 0xe0, 0x56, 0x33, 0x0a, 0x26, 0x48, 0xcc, 
  0x6d, 0x29, 0xb7, 0xfb, 0x98, 0xa4, 0xa6, 0xbd, 0x24, 0x81, 0xd4, 0xd5, 
  0x5d, 0xbe, 0xce, 0x33, 0x39, 0xe7, 0x5e, 0x69, 0x23, 0x78, 0xd3, 0x81, 
  0xbb, 0x33, 0x09, 0xa2, 0xb7, 0x85, 0x4d, 0x03, 0xb3, 0x83, 0x0c, 0xd4, 
  0x08, 0x07, 0x1c, 0xde, 0x5a, 0xf2, 0x98, 0x10, 0x41, 0x3c, 0xeb, 0xe4, 
  0xe3, 0x34, 0x2d, 0x0d, 0xfa, 0x16, 0x08, 0x98, 0xad, 0xcc, 0xea, 0xf5, 
  0x27, 0xc3, 0x30, 0x53, 0xca, 0xde, 0xac, 0x41, 0xf9, 0x35, 0xbe, 0x14, 
  0x13, 0x21, 0x2a, 0x29, 0xa3, 0x03, 0x05, 0xbd, 0x72, 0x52, 0x50, 0x1f, 
  0xfe, 0x21, 0x39, 0x3f, 0x00, 0xc1, 0x3d, 0x4d, 0xd3, 0x48, 0xb6, 0x07, 
  0x09, 0xff, 0x2a, 0x2d, 0x3b, 0xf3, 0xee, 0x66, 0x22, 0x6a, 0x13, 0xb4, 
  0x91, 0x5b, 0xdf, 0x4c, 0xf8, 0x30, 0x1c, 0x36, 0x31, 0xfb, 0x37, 0x6c, 
  0xd5, 0xf5, 0xb3, 0xc2, 0x6d, 0x14, 0x38, 0x1f, 0xdb, 0xe9, 0xa7, 0xe6, 
  0xe9, 0x52, 0x17, 0x28, 0x64, 0x06, 0x27, 0xca, 0x37, 0x5d, 0x82, 0xd6, 
  0x5d, 0x28, 0x3e, 0xfa, 0x0a, 0xc3, 0x13, 0xae, 0xc4, 0xaa, 0xb7, 0xfd, 
  0x60, 0x2e, 0x18, 0x1e, 0xf3, 0x7f, 0xb1, 0xbb, 0xbe, 0x4b, 0x31, 0x44, 
  0x1a, 0x09, 0x05, 0x02, 0x60, 0x22, 0xa9, 0xe0, 0x46, 0xcb, 0x03, 0xf2, 
  0xf0, 0x45, 0xf1, 0xbf, 0x2f, 0x42, 0x16, 0xd1, 0x1c, 0x81, 0xe5, 0x6c, 
  0xcc, 0x25, 0xa6, 0x08, 0x0f, 0xf1, 0x21, 0x27, 0x40, 0x0f, 0xf4, 0xb0, 
  0xd0, 0x93, 0x2d, 0x03, 0x22, 0x16, 0x35, 0x38, 0x29, 0xd1, 0x3d, 0xf3, 
  0x3a, 0x00, 0xc0, 0x1d, 0x0f, 0xc1, 0xf0, 0xec, 0xc6, 0xd0, 0xfe, 0x20, 
  0xca, 0x44, 0x09, 0x3a, 0xde, 0xe7, 0xed, 0xca, 0x04, 0xe2, 0x05, 0xea, 
  0xd0, 0xd6, 0x1b, 0x02, 0x46, 0xf4, 0x18, 0x3d, 0xdb, 0x1d, 0xe1, 0x0f, 
  0xa5, 0xe8, 0x04, 0x3b, 0xe9, 0xe6, 0xe6, 0xdd, 0x4c, 0xec, 0x04, 0xe1, 
  0x2a, 0x1f, 0xe6, 0x08, 0x16, 0x66, 0x1b, 0x48, 0x3f, 0x2d, 0x63, 0xe0, 
  0x38, 0x20, 0x6c, 0x61, 0xcb, 0x81, 0xc1, 0x03, 0x19, 0xb5, 0xd8, 0xe8, 
  0x23, 0x35, 0x36, 0xca, 0x15, 0x03, 0xf9, 0x56, 0xed, 0x56, 0x20, 0x08, 
  0x20, 0x04, 0xbb, 0xec, 0x44, 0xd9, 0x25, 0x43, 0xd7, 0x2b, 0xe8, 0xf2, 
  0xdc, 0x23, 0x0c, 0x0d, 0x43, 0x2f, 0x30, 0x37, 0x36, 0xb5, 0xfe, 0xd0, 
  0x2b, 0x1c, 0x01, 0x18, 0xfe, 0xbd, 0xfe, 0x40, 0xb9, 0x46, 0x0f, 0x1a, 
  0x2a, 0xbd, 0xc5, 0xdd, 0xcf, 0x91, 0xbb, 0x89, 0xef, 0x26, 0x05, 0x59, 
  0x6f, 0xee, 0x31, 0x05, 0xde, 0xcd, 0x13, 0xec, 0x65, 0xb8, 0xd2, 0xcc, 
  0x56, 0x5e, 0xd5, 0x06, 0xc7, 0x25, 0x45, 0xca, 0x59, 0xc5, 0xba, 0x09, 
  0x55, 0x37, 0xf0, 0xf5, 0xf3, 0x5c, 0x51, 0xe9, 0xe2, 0x81, 0xaf, 0x60, 
  0xf9, 0xd2, 0xba, 0xab, 0xeb, 0x2c, 0x0b, 0x05, 0x1a, 0xc1, 0xaf, 0xd7, 
  0x38, 0x11, 0x2f, 0x4c, 0xef, 0xf7, 0xdb, 0x3f, 0x87, 0x4b, 0x1c, 0x06, 
  0x55, 0x0b, 0x00, 0xa8, 0xc5, 0xd5, 0xef, 0x3d, 0x1b, 0xda, 0x06, 0x3f, 
  0x1e, 0x8e, 0xcb, 0x81, 0xda, 0xb3, 0x16, 0xd1, 0xd0, 0xf5, 0xf7, 0xdb, 
  0xfd, 0xf0, 0xdb, 0xf2, 0x06, 0xd9, 0x2d, 0x0e, 0xe9, 0xd6, 0x34, 0xea, 
  0x20, 0x37, 0xd7, 0x10, 0xb6, 0x05, 0x4b, 0x01, 0x14, 0x29, 0x59, 0xfe, 
  0x19, 0x1b, 0xd4, 0x31, 0x34, 0xef, 0x38, 0x08, 0xb6, 0xef, 0x2b, 0x18, 
  0xf6, 0xe1, 0x44, 0xd7, 0x09, 0x89, 0x39, 0xf3, 0xc1, 0xb4, 0x0a, 0xc8, 
  0x3c, 0xc6, 0x3d, 0x25, 0x40, 0x22, 0xb6, 0x09, 0xee, 0x22, 0xf4, 0x11, 
  0xd2, 0xbd, 0x29, 0xa4, 0xf3, 0x98, 0xe2, 0xd1, 0x22, 0x5b, 0x04, 0xfd, 
  0xe4, 0x14, 0x40, 0x01, 0x45, 0xc2, 0x1a, 0xf0, 0x21, 0x16, 0x49, 0xc4, 
  0x1a, 0x04, 0xf8, 0xde, 0x4e, 0x52, 0x47, 0x28, 0xfa, 0x18, 0xe7, 0x48, 
  0x03, 0x6d, 0x0e, 0x01, 0x88, 0xdc, 0xe2, 0xff, 0x13, 0x68, 0xe8, 0x53, 
  0x3f, 0x7f, 0x18, 0x5f, 0x11, 0xd4, 0xfe, 0x3e, 0xb3, 0x64, 0xde, 0x3a, 
  0xdd, 0xe6, 0xd0, 0xc8, 0xe2, 0x1b, 0x05, 0xad, 0x22, 0xfb, 0x2a, 0xe2, 
  0x18, 0x2d, 0x00, 0x3a, 0xae, 0x04, 0xf2, 0x44, 0xa0, 0x04, 0x47, 0xca, 
  0xd3, 0xfa, 0x2d, 0x21, 0x36, 0x1e, 0x32, 0x44, 0xf8, 0xf1, 0x25, 0xcd, 
  0xa2, 0x37, 0x9e, 0xa7, 0xeb, 0x4d, 0xe8, 0x3f, 0x07, 0x36, 0xab, 0x36, 
  0xb4, 0x29, 0xd5, 0x06, 0x1e, 0x15, 0xdf, 0x43, 0xf7, 0xc3, 0xc5, 0xd8, 
  0x2e, 0x3b, 0x0b, 0x0e, 0x1c, 0xfe, 0xd4, 0x00, 0xb4, 0xc3, 0x1a, 0xe6, 
  0x3b, 0x45, 0x69, 0x01, 0x1c, 0xf0, 0xd7, 0x5b, 0x81, 0x0c, 0x20, 0xdd, 
  0xfd, 0xd1, 0xf4, 0xe8, 0x17, 0xbe, 0x5f, 0x34, 0x2a, 0x71, 0x3f, 0x4b, 
  0xe4, 0x18, 0xd3, 0xd9, 0xff, 0xd1, 0x16, 0x34, 0xa7, 0xee, 0xa2, 0x41, 
  0x05, 0x1f, 0xda, 0x19, 0x03, 0xb1, 0x07, 0xe5, 0xdc, 0x29, 0x1b, 0xfa, 
  0xc6, 0xf8, 0xe9, 0x09, 0xc6, 0x3a, 0xfe, 0x38, 0x1a, 0x30, 0x41, 0x05, 
  0x16, 0xc0, 0xb6, 0xf2, 0xb8, 0x17, 0x4d, 0x45, 0xff, 0xe0, 0xa6, 0x43, 
  0xbd, 0x1e, 0xa7, 0xcc, 0x1a, 0x3b, 0x27, 0x37, 0x3d, 0x1a, 0xb8, 0x1b, 
  0xd6, 0xf0, 0x1e, 0x2b, 0xbb, 0xc6, 0x2a, 0x0f, 0xbc, 0x06, 0x81, 0xe7, 
  0x27, 0xe4, 0xff, 0xcf, 0x43, 0xf9, 0x02, 0x0c, 0xea, 0xee, 0xec, 0x1a, 
  0xbf, 0x15, 0xeb, 0xf3, 0xdf, 0xe2, 0x86, 0x03, 0xce, 0x31, 0xd0, 0x24, 
  0xbe, 0xe4, 0x05, 0xdf, 0xd3, 0xe3, 0x4a, 0x26, 0xd3, 0x24, 0x0d, 0xc7, 
  0x0e, 0x33, 0x40, 0xff, 0xec, 0x0c, 0xf4, 0x6b, 0x07, 0x30, 0x12, 0x33, 
  0x24, 0x46, 0x49, 0xbd, 0xd6, 0x13, 0x50, 0xaf, 0x12, 0x25, 0x2b, 0x26, 
  0xb0, 0xa2, 0xef, 0xe9, 0xd7, 0x0e, 0xba, 0x2e, 0x3a, 0x86, 0x4e, 0x1d, 
  0xef, 0x1a, 0x3e, 0xeb, 0xc7, 0xf0, 0x1d, 0x81, 0xdc, 0x95, 0xf6, 0xd2, 
  0xfd, 0x47, 0x20, 0xef, 0x21, 0x1b, 0xa8, 0x1f, 0x0e, 0x3a, 0x09, 0x57, 
  0xc6, 0x61, 0x06, 0x2b, 0xb8, 0xfa, 0x7b, 0xce, 0xe5, 0x1e, 0xb0, 0xe2, 
  0x2c, 0x14, 0x05, 0xd1, 0xdf, 0xe3, 0xba, 0x2f, 0xb4, 0xe0, 0xb6, 0xc1, 
  0xd8, 0xce, 0xe3, 0xf1, 0xbe, 0x3d, 0x07, 0x06, 0x01, 0x3d, 0x10, 0x65, 
  0x22, 0x08, 0x0e, 0x4a, 0xea, 0x3f, 0x38, 0x05, 0xfb, 0xfc, 0x3e, 0x1a, 
  0xe0, 0xf7, 0x81, 0xf9, 0xea, 0x20, 0xc1, 0x16, 0x0e, 0xce, 0xb1, 0x83, 
  0xa9, 0xff, 0xb8, 0xce, 0xd8, 0xd4, 0xdc, 0xcb, 0xf5, 0x1f, 0xc7, 0xef, 
  0x05, 0x1b, 0x4e, 0x13, 0xd0, 0xc8, 0x3e, 0xe7, 0x2b, 0xba, 0xff, 0x26, 
  0x2f, 0x62, 0x22, 0x30, 0x11, 0x8e, 0x24, 0x3b, 0xd5, 0xf6, 0xf4, 0x3a, 
  0x6d, 0xfa, 0xec, 0x5c, 0xbb, 0x16, 0xf8, 0xe6, 0xb7, 0x19, 0xe6, 0x37, 
  0x9d, 0xf9, 0xfc, 0xd3, 0x77, 0x3e, 0x81, 0x72, 0xa6, 0x06, 0x38, 0x3e, 
  0xc1, 0x0c, 0xed, 0xc2, 0x46, 0xa3, 0xd5, 0x50, 0x21, 0xcf, 0xe3, 0x45, 
  0xb1, 0x9a, 0x47, 0xb4, 0xd6, 0xe4, 0xb6, 0x15, 0xc3, 0x08, 0x76, 0x39, 
  0xba, 0x5c, 0x00, 0xcd, 0xc6, 0xff, 0xd8, 0x37, 0xeb, 0xce, 0xc6, 0x1c, 
  0x3a, 0xc3, 0xf2, 0xbf, 0x08, 0xd5, 0xe7, 0x34, 0xe3, 0xec, 0xad, 0xcd, 
  0x2f, 0x24, 0xb6, 0x0e, 0xdc, 0x5b, 0x71, 0x92, 0xc5, 0xcf, 0x79, 0xe4, 
  0x49, 0x9a, 0xdf, 0xf9, 0x3e, 0x65, 0xdf, 0x2c, 0x3d, 0xa6, 0xe5, 0xa6, 
  0xc5, 0x58, 0x5d, 0xda, 0x15, 0xed, 0x37, 0x56, 0xea, 0x40, 0x81, 0xf1, 
  0xaf, 0xa5, 0xf8, 0x0c, 0x81, 0xbd, 0xee, 0x57, 0x17, 0xcf, 0xce, 0xde, 
  0x3d, 0xec, 0xdc, 0xf3, 0x7a, 0x18, 0x46, 0xd9, 0x33, 0xcf, 0x1e, 0x3d, 
  0xcc, 0xbc, 0x07, 0xc3, 0xba, 0xa6, 0xec, 0xa1, 0x32, 0xf6, 0xf1, 0xeb, 
  0xcb, 0x43, 0x48, 0x0b, 0xca, 0xe1, 0xa7, 0xf9, 0x5f, 0x3d, 0x5a, 0xfd, 
  0x37, 0x64, 0x2b, 0x35, 0x54, 0xfb, 0x4b, 0x39, 0xd2, 0x7f, 0x0e, 0x36, 
  0x45, 0x29, 0x43, 0xeb, 0x03, 0x85, 0x56, 0xdc, 0x34, 0xde, 0xa9, 0x00, 
  0xf3, 0xee, 0x0e, 0xd0, 0xab, 0xbb, 0x28, 0xf6, 0xff, 0xc1, 0xc8, 0xba, 
  0x58, 0x2b, 0xe9, 0xd4, 0xda, 0xd2, 0x40, 0x44, 0xf1, 0x18, 0x1d, 0x14, 
  0xd2, 0x17, 0xf4, 0xb4, 0x4d, 0x03, 0xe8, 0x08, 0xf7, 0xcd, 0x06, 0xd7, 
  0xd8, 0x19, 0x27, 0x96, 0x16, 0x23, 0x4b, 0xd4, 0x2a, 0x41, 0x9b, 0x03, 
  0xeb, 0x37, 0xef, 0xcd, 0x0d, 0x02, 0x18, 0xba, 0x74, 0xa7, 0x40, 0x58, 
  0xd7, 0x1d, 0xff, 0xe4, 0x0d, 0x2f, 0xd9, 0x22, 0x31, 0xcc, 0x12, 0x34, 
  0xdb, 0xcc, 0xe6, 0x43, 0x22, 0xcd, 0x11, 0x7d, 0x65, 0x48, 0x15, 0x5c, 
  0x10, 0x41, 0xa2, 0x43, 0x17, 0x20, 0xcd, 0x21, 0x42, 0x3e, 0x12, 0xea, 
  0x53, 0xad, 0x2d, 0x0c, 0xe7, 0x70, 0x58, 0x72, 0x67, 0x1e, 0x1d, 0x38, 
  0x01, 0x30, 0xec, 0xc6, 0x24, 0xbb, 0x89, 0x42, 0x2c, 0x35, 0x7f, 0x56, 
  0x15, 0x06, 0x43, 0x06, 0xc8, 0xe3, 0x1b, 0xa7, 0xcc, 0xd2, 0xe0, 0x23, 
  0xf5, 0xd2, 0x08, 0xd7, 0x0e, 0x04, 0xdd, 0x59, 0x3a, 0xb1, 0xee, 0x27, 
  0xdb, 0xeb, 0xa1, 0x3a, 0xed, 0x07, 0x2e, 0x23, 0xe8, 0x05, 0x0c, 0x1b, 
  0xed, 0xfa, 0x9a, 0x17, 0xb4, 0xcf, 0x30, 0xb9, 0x1b, 0xf9, 0x54, 0xc4, 
  0x01, 0xf2, 0xd6, 0x38, 0x10, 0x29, 0x00, 0xf2, 0x21, 0x37, 0x19, 0x3b, 
  0xe1, 0x30, 0xa0, 0x1e, 0xe7, 0x18, 0xc2, 0xf5, 0x92, 0x08, 0x0c, 0x5c, 
  0x5d, 0xff, 0x50, 0x11, 0x24, 0x7f, 0x4d, 0x02, 0xde, 0x45, 0xa1, 0xe2, 
  0x24, 0x1f, 0x20, 0x1a, 0x18, 0x23, 0x12, 0xd9, 0x87, 0x74, 0x19, 0xd0, 
  0xbe, 0xc2, 0x21, 0xc6, 0x89, 0xd4, 0xdf, 0x04, 0xa4, 0x2f, 0xb9, 0xd5, 
  0xc9, 0x11, 0xbf, 0xb3, 0xd7, 0xf0, 0xd3, 0x81, 0x10, 0x1c, 0x0c, 0x1b, 
  0x2a, 0xd2, 0xdc, 0x28, 0x86, 0xfe, 0xc1, 0x2d, 0x25, 0xc3, 0x3f, 0x10, 
  0xbe, 0x9b, 0x3f, 0x12, 0x00, 0xbf, 0xf8, 0x01, 0x63, 0x74, 0x2d, 0x56, 
  0x94, 0xdb, 0x9e, 0x38, 0x3b, 0x0c, 0x16, 0x06, 0xda, 0x1b, 0x0e, 0xd9, 
  0x0c, 0x25, 0x1c, 0x18, 0x42, 0xf0, 0x57, 0x8a, 0xa2, 0x3e, 0x03, 0xf8, 
  0x81, 0x29, 0xdd, 0x04, 0xd7, 0x10, 0xf6, 0x03, 0x12, 0x19, 0xf5, 0xf2, 
  0x06, 0x02, 0xd6, 0xda, 0xfc, 0xbf, 0x62, 0x3b, 0x64, 0xe3, 0xff, 0x5a, 
  0xdc, 0x37, 0x71, 0xbd, 0xe8, 0x49, 0x27, 0x00, 0x36, 0xb5, 0x9e, 0xc0, 
  0x88, 0x14, 0xa7, 0x30, 0xef, 0xfd, 0x22, 0x16, 0xdc, 0xdf, 0x3f, 0xd1, 
  0x3d, 0x40, 0x0b, 0xc7, 0x99, 0x47, 0xed, 0xda, 0x0f, 0xa7, 0xd2, 0xaa, 
  0x0e, 0x03, 0xf3, 0x07, 0x24, 0x96, 0x6d, 0x43, 0x93, 0x29, 0x2c, 0x55, 
  0xe1, 0x11, 0x45, 0xd3, 0xf2, 0x8f, 0x12, 0x09, 0x6e, 0x81, 0x41, 0x41, 
  0x4c, 0x03, 0x49, 0x0f, 0xd0, 0x41, 0x17, 0x2d, 0xc0, 0xee, 0x50, 0xe0, 
  0x9e, 0x22, 0x5d, 0xfa, 0x4e, 0xf7, 0x53, 0x66, 0x3c, 0x02, 0xd2, 0xe5, 
  0xba, 0x48, 0x19, 0x17, 0xfd, 0x89, 0x1a, 0x31, 0xc8, 0x1f, 0x40, 0x52, 
  0x54, 0x01, 0xf1, 0x0d, 0xd5, 0xf6, 0x0d, 0xd5, 0x95, 0xd6, 0xfb, 0xd8, 
  0x22, 0x1e, 0x6a, 0xbe, 0xfe, 0x1c, 0xce, 0xda, 0xb1, 0x22, 0xc2, 0x3e, 
  0xad, 0x04, 0xac, 0xd3, 0xba, 0x1a, 0x15, 0xd2, 0xe6, 0x03, 0x4c, 0xbf, 
  0x12, 0xfb, 0xff, 0xff, 0x04, 0x00, 0x00, 0x00, 0x80, 0x00, 0x00, 0x00, 
  0xbc, 0x05, 0x00, 0x00, 0xc8, 0xf5, 0xff, 0xff, 0x4f, 0xfa, 0xff, 0xff, 
  0x91, 0xf9, 0xff, 0xff, 0x45, 0x06, 0x00, 0x00, 0xf7, 0x09, 0x00, 0x00, 
  0x5e, 0xf4, 0xff, 0xff, 0xf3, 0x09, 0x00, 0x00, 0xac, 0xfc, 0xff, 0xff, 
  0xcd, 0x01, 0x00, 0x00, 0xdf, 0x01, 0x00, 0x00, 0xe8, 0xf3, 0xff, 0xff, 
  0xa1, 0x04, 0x00, 0x00, 0xa1, 0xeb, 0xff, 0xff, 0x84, 0xf0, 0xff, 0xff, 
  0xef, 0xfd, 0xff, 0xff, 0x0a, 0x0d, 0x00, 0x00, 0xfc, 0x05, 0x00, 0x00, 
  0x52, 0x03, 0x00, 0x00, 0x2f, 0xfc, 0xff, 0xff, 0x8d, 0xf3, 0xff, 0xff, 
  0x29, 0x0b, 0x00, 0x00, 0xb9, 0x09, 0x00, 0x00, 0x8e, 0xf8, 0xff, 0xff, 
  0xec, 0xfc, 0xff, 0xff, 0x3a, 0xf9, 0xff, 0xff, 0xef, 0xf9, 0xff, 0xff, 
  0xbf, 0x07, 0x00, 0x00, 0x7d, 0xfe, 0xff, 0xff, 0xea, 0xf7, 0xff, 0xff, 
  0x12, 0x0b, 0x00, 0x00, 0x8a, 0x03, 0x00, 0x00, 0x9e, 0xfb, 0xff, 0xff, 
  0x04, 0x00, 0x00, 0x00, 0x00, 0x02, 0x00, 0x00, 0xf4, 0xc2, 0x81, 0xdb, 
  0xb1, 0x35, 0xc0, 0xfa, 0x3b, 0x46, 0x39, 0xe2, 0x58, 0x1a, 0xea, 0xb0, 
  0x0f, 0x16, 0xf7, 0xfb, 0x41, 0x35, 0x0c, 0xc2, 0x45, 0xfc, 0xd2, 0x29, 
  0x1d, 0xc7, 0xd0, 0x4a, 0x05, 0xd8, 0x7f, 0x31, 0xed, 0xd3, 0xd0, 0xbb, 
  0xda, 0x14, 0x2c, 0xe5, 0x2e, 0x35, 0x33, 0x39, 0x4b, 0x9a, 0xbd, 0xcf, 
  0x32, 0xd2, 0x4b, 0x4b, 0x9b, 0xd2, 0x52, 0xab, 0xb3, 0xf0, 0xbb, 0x0c, 
  0x20, 0x67, 0x21, 0x18, 0xc4, 0x19, 0x18, 0xbd, 0x37, 0xb5, 0xe0, 0xd8, 
  0x22, 0x24, 0xaf, 0x2d, 0xd9, 0x8a, 0x4d, 0x61, 0xe7, 0x81, 0x37, 0x13, 
  0xa2, 0x1c, 0x34, 0x2d, 0x20, 0x44, 0x30, 0xc6, 0x62, 0x13, 0x35, 0x50, 
  0x04, 0xc9, 0x18, 0xde, 0xa6, 0xc1, 0x56, 0x0e, 0xeb, 0x36, 0x35, 0x4a, 
  0x3a, 0x9a, 0x0b, 0xd4, 0xaf, 0x08, 0x28, 0x7f, 0x8d, 0xee, 0x51, 0x0f, 
  0xee, 0x62, 0xbb, 0xb9, 0x06, 0x38, 0xb7, 0xb5, 0x25, 0x04, 0xcd, 0x60, 
  0x32, 0x71, 0x13, 0x01, 0x7f, 0xe1, 0xee, 0xdf, 0xce, 0x04, 0x6f, 0x42, 
  0x13, 0x3f, 0xa1, 0x04, 0x59, 0x6b, 0x08, 0xa7, 0x06, 0xf0, 0x6c, 0x32, 
  0x95, 0xaf, 0x90, 0x31, 0x2f, 0x20, 0x8a, 0x3d, 0xfb, 0x0f, 0xf5, 0xe5, 
  0x33, 0xd9, 0x1d, 0x0a, 0xe2, 0x40, 0xc5, 0x95, 0x36, 0x59, 0xbd, 0xb4, 
  0x39, 0xca, 0xa3, 0x2b, 0x7f, 0xb5, 0x14, 0x0a, 0xc6, 0xa8, 0xa1, 0xe5, 
  0xd2, 0x5d, 0x92, 0x5b, 0x2d, 0x4f, 0x1a, 0xc6, 0x67, 0xa9, 0xb9, 0xa8, 
  0x2a, 0x4a, 0x4c, 0xea, 0x6f, 0x3f, 0xcf, 0xa9, 0x01, 0x1f, 0xad, 0xfa, 
  0x29, 0xa2, 0x4d, 0x7f, 0x40, 0x4a, 0x20, 0x2b, 0x1a, 0xec, 0xff, 0xdb, 
  0x1e, 0xe0, 0x02, 0xdf, 0xf4, 0x1a, 0xdb, 0x21, 0xf1, 0xdc, 0x13, 0xf2, 
  0xf0, 0x95, 0x0c, 0x30, 0x81, 0xee, 0x54, 0x2c, 0x03, 0x58, 0xcc, 0x12, 
  0x0a, 0xe9, 0xc3, 0x06, 0xf4, 0xc0, 0x09, 0x9e, 0xd6, 0x4a, 0x8e, 0xfb, 
  0xca, 0xc7, 0x10, 0xcf, 0x4b, 0x37, 0x02, 0xbf, 0x09, 0x2f, 0xe3, 0x3d, 
  0x5a, 0x99, 0x81, 0xec, 0x1a, 0x74, 0x23, 0x37, 0xa5, 0xda, 0xb7, 0xca, 
  0xf0, 0xf1, 0xcf, 0x18, 0xcd, 0x7f, 0x23, 0xe1, 0x3b, 0xcd, 0xad, 0x9b, 
  0x06, 0x18, 0x2d, 0x01, 0xdb, 0x41, 0x2c, 0xc2, 0x3f, 0x1e, 0x0a, 0x19, 
  0x04, 0xb9, 0xdb, 0x26, 0xe2, 0xed, 0xa8, 0xe2, 0xe3, 0xff, 0xb0, 0x4d, 
  0x3a, 0x75, 0x20, 0xc2, 0x06, 0xe6, 0xda, 0xd0, 0x09, 0x04, 0x0e, 0xcd, 
  0x56, 0x7f, 0x0b, 0xf0, 0x43, 0x25, 0x02, 0x35, 0x2a, 0x9f, 0xfa, 0x3c, 
  0x08, 0x06, 0x7f, 0x38, 0x7b, 0x94, 0xee, 0xdd, 0xc7, 0xfa, 0x26, 0x3e, 
  0x20, 0x0e, 0x27, 0x1f, 0x3d, 0xd2, 0xf5, 0x5e, 0x0c, 0x96, 0xde, 0x64, 
  0x00, 0x2c, 0x0a, 0x26, 0xc1, 0x59, 0xba, 0x17, 0x57, 0x39, 0xd5, 0x2d, 
  0x3f, 0xe4, 0x59, 0xe6, 0x10, 0x2a, 0xf5, 0xdb, 0x61, 0x38, 0x1f, 0x06, 
  0xe3, 0x1b, 0xd6, 0xfd, 0xea, 0x1f, 0xe8, 0xf4, 0xf6, 0x1d, 0x5c, 0xcd, 
  0xf9, 0xe1, 0x57, 0x81, 0xf9, 0x23, 0x3a, 0x31, 0x44, 0xb2, 0xbf, 0xdb, 
  0x0f, 0xcb, 0x54, 0x34, 0xd2, 0x4f, 0xed, 0x6b, 0xf9, 0xc6, 0x47, 0xe8, 
  0xa5, 0x81, 0x48, 0x13, 0xec, 0xcd, 0x06, 0xf8, 0xde, 0x04, 0xef, 0xf0, 
  0x81, 0xa9, 0x07, 0x17, 0x14, 0xbf, 0x66, 0xd0, 0xb2, 0x9d, 0x26, 0xfb, 
  0x35, 0xc6, 0x67, 0xb9, 0xe4, 0xe1, 0x2f, 0xe3, 0xad, 0xb6, 0x27, 0xab, 
  0x33, 0x08, 0x01, 0xff, 0xc3, 0xe1, 0x01, 0x18, 0xc8, 0x39, 0xf2, 0x3d, 
  0x13, 0x9c, 0x0e, 0x30, 0x38, 0x35, 0x2e, 0x4e, 0xae, 0x20, 0x99, 0x7f, 
  0xdb, 0xfc, 0x63, 0x1b, 0x55, 0x11, 0xed, 0x72, 0xb3, 0x4b, 0xcc, 0xa0, 
  0xb2, 0x13, 0xf5, 0xfd, 0xaa, 0xfd, 0xff, 0xff, 0x04, 0x00, 0x00, 0x00, 
  0x40, 0x00, 0x00, 0x00, 0xcb, 0x02, 0x00, 0x00, 0x90, 0x04, 0x00, 0x00, 
  0x99, 0x01, 0x00, 0x00, 0x77, 0x05, 0x00, 0x00, 0x84, 0x06, 0x00, 0x00, 
  0xda, 0x09, 0x00, 0x00, 0x8d, 0x09, 0x00, 0x00, 0xcb, 0x01, 0x00, 0x00, 
  0xbd, 0xfc, 0xff, 0xff, 0x74, 0x08, 0x00, 0x00, 0xbb, 0x03, 0x00, 0x00, 
  0x29, 0xfe, 0xff, 0xff, 0x6c, 0x04, 0x00, 0x00, 0x1f, 0x03, 0x00, 0x00, 
  0xb9, 0xfb, 0xff, 0xff, 0xb7, 0xf9, 0xff, 0xff, 0xf6, 0xfd, 0xff, 0xff, 
  0x04, 0x00, 0x00, 0x00, 0x20, 0x00, 0x00, 0x00, 0xc4, 0x11, 0x3c, 0xfe, 
  0x10, 0xc4, 0x81, 0x32, 0xd6, 0x81, 0xd6, 0x43, 0x54, 0x2e, 0x54, 0x46, 
  0xe4, 0x73, 0x38, 0x76, 0x8e, 0x81, 0x8b, 0x4c, 0x61, 0x9b, 0xe9, 0x0d, 
  0xbe, 0x65, 0xf0, 0x01, 0x22, 0xfe, 0xff, 0xff, 0x04, 0x00, 0x00, 0x00, 
  0x08, 0x00, 0x00, 0x00, 0xab, 0xff, 0xff, 0xff, 0x47, 0xfd, 0xff, 0xff, 
  0x36, 0xfe, 0xff, 0xff, 0x04, 0x00, 0x00, 0x00, 0x04, 0x00, 0x00, 0x00, 
  0x50, 0x00, 0x00, 0x00, 0x46, 0xfe, 0xff, 0xff, 0x04, 0x00, 0x00, 0x00, 
  0x04, 0x00, 0x00, 0x00, 0x01, 0x00, 0x00, 0x00, 0x56, 0xfe, 0xff, 0xff, 
  0x04, 0x00, 0x00, 0x00, 0x04, 0x00, 0x00, 0x00, 0x00, 0x00, 0x00, 0x00, 
  0x04, 0xf2, 0xff, 0xff, 0x08, 0xf2, 0xff, 0xff, 0x0f, 0x00, 0x00, 0x00, 
  0x4d, 0x4c, 0x49, 0x52, 0x20, 0x43, 0x6f, 0x6e, 0x76, 0x65, 0x72, 0x74, 
  0x65, 0x64, 0x2e, 0x00, 0x01, 0x00, 0x00, 0x00, 0x14, 0x00, 0x00, 0x00, 
  0x00, 0x00, 0x0e, 0x00, 0x18, 0x00, 0x14, 0x00, 0x10, 0x00, 0x0c, 0x00, 
  0x08, 0x00, 0x04, 0x00, 0x0e, 0x00, 0x00, 0x00, 0x14, 0x00, 0x00, 0x00, 
  0x1c, 0x00, 0x00, 0x00, 0x1c, 0x02, 0x00, 0x00, 0x20, 0x02, 0x00, 0x00, 
  0x24, 0x02, 0x00, 0x00, 0x04, 0x00, 0x00, 0x00, 0x6d, 0x61, 0x69, 0x6e, 
  0x00, 0x00, 0x00, 0x00, 0x08, 0x00, 0x00, 0x00, 0xcc, 0x01, 0x00, 0x00, 
  0x6c, 0x01, 0x00, 0x00, 0x1c, 0x01, 0x00, 0x00, 0xf4, 0x00, 0x00, 0x00, 
  0xac, 0x00, 0x00, 0x00, 0x60, 0x00, 0x00, 0x00, 0x28, 0x00, 0x00, 0x00, 
  0x04, 0x00, 0x00, 0x00, 0x2a, 0xff, 0xff, 0xff, 0x0c, 0x00, 0x00, 0x00, 
  0x10, 0x00, 0x00, 0x00, 0x05, 0x00, 0x00, 0x00, 0x01, 0x00, 0x00, 0x00, 
  0x11, 0x00, 0x00, 0x00, 0x01, 0x00, 0x00, 0x00, 0x10, 0x00, 0x00, 0x00, 
  0x92, 0xff, 0xff, 0xff, 0x14, 0x00, 0x00, 0x00, 0x00, 0x00, 0x00, 0x08, 
  0x10, 0x00, 0x00, 0x00, 0x14, 0x00, 0x00, 0x00, 0x04, 0x00, 0x00, 0x00, 
  0xb8, 0xf2, 0xff, 0xff, 0x01, 0x00, 0x00, 0x00, 0x10, 0x00, 0x00, 0x00, 
  0x03, 0x00, 0x00, 0x00, 0x0f, 0x00, 0x00, 0x00, 0x05, 0x00, 0x00, 0x00, 
  0x04, 0x00, 0x00, 0x00, 0xc6, 0xff, 0xff, 0xff, 0x14, 0x00, 0x00, 0x00, 
  0x00, 0x00, 0x00, 0x08, 0x14, 0x00, 0x00, 0x00, 0x18, 0x00, 0x00, 0x00, 
  0x04, 0x00, 0x00, 0x00, 0xaa, 0xfe, 0xff, 0xff, 0x00, 0x00, 0x00, 0x01, 
  0x01, 0x00, 0x00, 0x00, 0x0f, 0x00, 0x00, 0x00, 0x03, 0x00, 0x00, 0x00, 
  0x0e, 0x00, 0x00, 0x00, 0x07, 0x00, 0x00, 0x00, 0x06, 0x00, 0x00, 0x00, 
  0x00, 0x00, 0x0e, 0x00, 0x18, 0x00, 0x14, 0x00, 0x10, 0x00, 0x0c, 0x00, 
  0x0b, 0x00, 0x04, 0x00, 0x0e, 0x00, 0x00, 0x00, 0x14, 0x00, 0x00, 0x00, 
  0x00, 0x00, 0x00, 0x08, 0x14, 0x00, 0x00, 0x00, 0x18, 0x00, 0x00, 0x00, 
  0x04, 0x00, 0x00, 0x00, 0xf2, 0xfe, 0xff, 0xff, 0x00, 0x00, 0x00, 0x01, 
  0x01, 0x00, 0x00, 0x00, 0x0e, 0x00, 0x00, 0x00, 0x03, 0x00, 0x00, 0x00, 
  0x0d, 0x00, 0x00, 0x00, 0x09, 0x00, 0x00, 0x00, 0x08, 0x00, 0x00, 0x00, 
  0x00, 0x00, 0x0a, 0x00, 0x10, 0x00, 0x0c, 0x00, 0x08, 0x00, 0x04, 0x00, 
  0x0a, 0x00, 0x00, 0x00, 0x0c, 0x00, 0x00, 0x00, 0x10, 0x00, 0x00, 0x00, 
  0x03, 0x00, 0x00, 0x00, 0x01, 0x00, 0x00, 0x00, 0x0d, 0x00, 0x00, 0x00, 
  0x02, 0x00, 0x00, 0x00, 0x00, 0x00, 0x00, 0x00, 0x0c, 0x00, 0x00, 0x00, 
  0xc2, 0xff, 0xff, 0xff, 0x1c, 0x00, 0x00, 0x00, 0x00, 0x00, 0x00, 0x3b, 
  0x1c, 0x00, 0x00, 0x00, 0x20, 0x00, 0x00, 0x00, 0x02, 0x00, 0x00, 0x00, 
  0x00, 0x00, 0x06, 0x00, 0x08, 0x00, 0x04, 0x00, 0x06, 0x00, 0x00, 0x00, 
  0x02, 0x00, 0x00, 0x00, 0x01, 0x00, 0x00, 0x00, 0x0c, 0x00, 0x00, 0x00, 
  0x02, 0x00, 0x00, 0x00, 0x0b, 0x00, 0x00, 0x00, 0x03, 0x00, 0x00, 0x00, 
  0x00, 0x00, 0x0e, 0x00, 0x1a, 0x00, 0x14, 0x00, 0x10, 0x00, 0x0c, 0x00, 
  0x0b, 0x00, 0x04, 0x00, 0x0e, 0x00, 0x00, 0x00, 0x24, 0x00, 0x00, 0x00, 
  0x00, 0x00, 0x00, 0x20, 0x24, 0x00, 0x00, 0x00, 0x28, 0x00, 0x00, 0x00, 
  0x01, 0x00, 0x00, 0x00, 0x00, 0x00, 0x0e, 0x00, 0x08, 0x00, 0x00, 0x00, 
  0x00, 0x00, 0x00, 0x00, 0x00, 0x00, 0x04, 0x00, 0x0e, 0x00, 0x00, 0x00, 
  0x01, 0x00, 0x00, 0x00, 0x01, 0x00, 0x00, 0x00, 0x0b, 0x00, 0x00, 0x00, 
  0x04, 0x00, 0x00, 0x00, 0x0a, 0x00, 0x00, 0x00, 0x01, 0x00, 0x00, 0x00, 
  0x02, 0x00, 0x00, 0x00, 0x02, 0x00, 0x00, 0x00, 0x00, 0x00, 0x0e, 0x00, 
  0x16, 0x00, 0x00, 0x00, 0x10, 0x00, 0x0c, 0x00, 0x0b, 0x00, 0x04, 0x00, 
  0x0e, 0x00, 0x00, 0x00, 0x18, 0x00, 0x00, 0x00, 0x00, 0x00, 0x00, 0x37, 
  0x18, 0x00, 0x00, 0x00, 0x1c, 0x00, 0x00, 0x00, 0x00, 0x00, 0x06, 0x00, 
  0x08, 0x00, 0x07, 0x00, 0x06, 0x00, 0x00, 0x00, 0x00, 0x00, 0x00, 0x02, 
  0x01, 0x00, 0x00, 0x00, 0x0a, 0x00, 0x00, 0x00, 0x01, 0x00, 0x00, 0x00, 
  0x00, 0x00, 0x00, 0x00, 0x01, 0x00, 0x00, 0x00, 0x11, 0x00, 0x00, 0x00, 
  0x01, 0x00, 0x00, 0x00, 0x00, 0x00, 0x00, 0x00, 0x12, 0x00, 0x00, 0x00, 
  0xc8, 0x0b, 0x00, 0x00, 0x6c, 0x0b, 0x00, 0x00, 0x14, 0x0b, 0x00, 0x00, 
  0xd8, 0x0a, 0x00, 0x00, 0x68, 0x0a, 0x00, 0x00, 0xf4, 0x09, 0x00, 0x00, 
  0xe0, 0x08, 0x00, 0x00, 0xc4, 0x07, 0x00, 0x00, 0xf0, 0x05, 0x00, 0x00, 
  0x14, 0x04, 0x00, 0x00, 0xc4, 0x03, 0x00, 0x00, 0x70, 0x03, 0x00, 0x00, 
  0x18, 0x03, 0x00, 0x00, 0x94, 0x02, 0x00, 0x00, 0xe0, 0x01, 0x00, 0x00, 
  0x24, 0x01, 0x00, 0x00, 0x80, 0x00, 0x00, 0x00, 0x04, 0x00, 0x00, 0x00, 
  0x96, 0xf4, 0xff, 0xff, 0x00, 0x00, 0x00, 0x01, 0x18, 0x00, 0x00, 0x00, 
  0x20, 0x00, 0x00, 0x00, 0x3c, 0x00, 0x00, 0x00, 0x12, 0x00, 0x00, 0x00, 
  0x00, 0x00, 0x00, 0x09, 0x50, 0x00, 0x00, 0x00, 0x02, 0x00, 0x00, 0x00, 
  0xff, 0xff, 0xff, 0xff, 0x02, 0x00, 0x00, 0x00, 0x7c, 0xf4, 0xff, 0xff, 
  0x08, 0x00, 0x00, 0x00, 0x10, 0x00, 0x00, 0x00, 0x01, 0x00, 0x00, 0x00, 
  0x80, 0xff, 0xff, 0xff, 0xff, 0xff, 0xff, 0xff, 0x01, 0x00, 0x00, 0x00, 
  0x00, 0x00, 0x80, 0x3b, 0x1b, 0x00, 0x00, 0x00, 0x53, 0x74, 0x61, 0x74, 
  0x65, 0x66, 0x75, 0x6c, 0x50, 0x61, 0x72, 0x74, 0x69, 0x74, 0x69, 0x6f, 
  0x6e, 0x65, 0x64, 0x43, 0x61, 0x6c, 0x6c, 0x5f, 0x31, 0x3a, 0x30, 0x00, 
  0x02, 0x00, 0x00, 0x00, 0x01, 0x00, 0x00, 0x00, 0x02, 0x00, 0x00, 0x00, 
  0x0e, 0xf5, 0xff, 0xff, 0x00, 0x00, 0x00, 0x01, 0x18, 0x00, 0x00, 0x00, 
  0x20, 0x00, 0x00, 0x00, 0x40, 0x00, 0x00, 0x00, 0x11, 0x00, 0x00, 0x00, 
  0x00, 0x00, 0x00, 0x09, 0x78, 0x00, 0x00, 0x00, 0x02, 0x00, 0x00, 0x00, 
  0xff, 0xff, 0xff, 0xff, 0x02, 0x00, 0x00, 0x00, 0xf4, 0xf4, 0xff, 0xff, 
  0x08, 0x00, 0x00, 0x00, 0x14, 0x00, 0x00, 0x00, 0x01, 0x00, 0x00, 0x00, 
  0x03, 0x00, 0x00, 0x00, 0x00, 0x00, 0x00, 0x00, 0x00, 0x00, 0x00, 0x00, 
  0x01, 0x00, 0x00, 0x00, 0x31, 0xe7, 0x88, 0x3c, 0x3c, 0x00, 0x00, 0x00, 
  0x73, 0x65, 0x71, 0x75, 0x65, 0x6e, 0x74, 0x69, 0x61, 0x6c, 0x5f, 0x31, 
  0x2f, 0x64, 0x65, 0x6e, 0x73, 0x65, 0x5f, 0x32, 0x5f, 0x31, 0x2f, 0x4d, 
  0x61, 0x74, 0x4d, 0x75, 0x6c, 0x3b, 0x73, 0x65, 0x71, 0x75, 0x65, 0x6e, 
  0x74, 0x69, 0x61, 0x6c, 0x5f, 0x31, 0x2f, 0x64, 0x65, 0x6e, 0x73, 0x65, 
  0x5f, 0x32, 0x5f, 0x31, 0x2f, 0x42, 0x69, 0x61, 0x73, 0x41, 0x64, 0x64, 
  0x00, 0x00, 0x00, 0x00, 0x02, 0x00, 0x00, 0x00, 0x01, 0x00, 0x00, 0x00, 
  0x02, 0x00, 0x00, 0x00, 0xae, 0xf5, 0xff, 0xff, 0x00, 0x00, 0x00, 0x01, 
  0x18, 0x00, 0x00, 0x00, 0x20, 0x00, 0x00, 0x00, 0x3c, 0x00, 0x00, 0x00, 
  0x10, 0x00, 0x00, 0x00, 0x00, 0x00, 0x00, 0x09, 0x90, 0x00, 0x00, 0x00, 
  0x02, 0x00, 0x00, 0x00, 0xff, 0xff, 0xff, 0xff, 0x10, 0x00, 0x00, 0x00, 
  0x94, 0xf5, 0xff, 0xff, 0x08, 0x00, 0x00, 0x00, 0x10, 0x00, 0x00, 0x00, 
  0x01, 0x00, 0x00, 0x00, 0x80, 0xff, 0xff, 0xff, 0xff, 0xff, 0xff, 0xff, 
  0x01, 0x00, 0x00, 0x00, 0xb4, 0x68, 0x18, 0x3c, 0x58, 0x00, 0x00, 0x00, 
  0x73, 0x65, 0x71, 0x75, 0x65, 0x6e, 0x74, 0x69, 0x61, 0x6c, 0x5f, 0x31, 
  0x2f, 0x64, 0x65, 0x6e, 0x73, 0x65, 0x5f, 0x31, 0x5f, 0x32, 0x2f, 0x4d, 
  0x61, 0x74, 0x4d, 0x75, 0x6c, 0x3b, 0x73, 0x65, 0x71, 0x75, 0x65, 0x6e, 
  0x74, 0x69, 0x61, 0x6c, 0x5f, 0x31, 0x2f, 0x64, 0x65, 0x6e, 0x73, 0x65, 
  0x5f, 0x31, 0x5f, 0x32, 0x2f, 0x52, 0x65, 0x6c, 0x75, 0x3b, 0x73, 0x65, 
  0x71, 0x75, 0x65, 0x6e, 0x74, 0x69, 0x61, 0x6c, 0x5f, 0x31, 0x2f, 0x64, 
  0x65, 0x6e, 0x73, 0x65, 0x5f, 0x31, 0x5f, 0x32, 0x2f, 0x42, 0x69, 0x61, 
  0x73, 0x41, 0x64, 0x64, 0x00, 0x00, 0x00, 0x00, 0x02, 0x00, 0x00, 0x00, 
  0x01, 0x00, 0x00, 0x00, 0x10, 0x00, 0x00, 0x00, 0x66, 0xf6, 0xff, 0xff, 
  0x00, 0x00, 0x00, 0x01, 0x18, 0x00, 0x00, 0x00, 0x20, 0x00, 0x00, 0x00, 
  0x3c, 0x00, 0x00, 0x00, 0x0f, 0x00, 0x00, 0x00, 0x00, 0x00, 0x00, 0x09, 
  0x88, 0x00, 0x00, 0x00, 0x02, 0x00, 0x00, 0x00, 0xff, 0xff, 0xff, 0xff, 
  0x20, 0x00, 0x00, 0x00, 0x4c, 0xf6, 0xff, 0xff, 0x08, 0x00, 0x00, 0x00, 
  0x10, 0x00, 0x00, 0x00, 0x01, 0x00, 0x00, 0x00, 0x80, 0xff, 0xff, 0xff, 
  0xff, 0xff, 0xff, 0xff, 0x01, 0x00, 0x00, 0x00, 0xd3, 0xbc, 0xf6, 0x3b, 
  0x52, 0x00, 0x00, 0x00, 0x73, 0x65, 0x71, 0x75, 0x65, 0x6e, 0x74, 0x69, 
  0x61, 0x6c, 0x5f, 0x31, 0x2f, 0x64, 0x65, 0x6e, 0x73, 0x65, 0x5f, 0x31, 
  0x2f, 0x4d, 0x61, 0x74, 0x4d, 0x75, 0x6c, 0x3b, 0x73, 0x65, 0x71, 0x75, 
  0x65, 0x6e, 0x74, 0x69, 0x61, 0x6c, 0x5f, 0x31, 0x2f, 0x64, 0x65, 0x6e, 
  0x73, 0x65, 0x5f, 0x31, 0x2f, 0x52, 0x65, 0x6c, 0x75, 0x3b, 0x73, 0x65, 
  0x71, 0x75, 0x65, 0x6e, 0x74, 0x69, 0x61, 0x6c, 0x5f, 0x31, 0x2f, 0x64, 
  0x65, 0x6e, 0x73, 0x65, 0x5f, 0x31, 0x2f, 0x42, 0x69, 0x61, 0x73, 0x41, 
  0x64, 0x64, 0x00, 0x00, 0x02, 0x00, 0x00, 0x00, 0x01, 0x00, 0x00, 0x00, 
  0x20, 0x00, 0x00, 0x00, 0x16, 0xf7, 0xff, 0xff, 0x00, 0x00, 0x00, 0x01, 
  0x18, 0x00, 0x00, 0x00, 0x20, 0x00, 0x00, 0x00, 0x40, 0x00, 0x00, 0x00, 
  0x0e, 0x00, 0x00, 0x00, 0x00, 0x00, 0x00, 0x09, 0x58, 0x00, 0x00, 0x00, 
  0x02, 0x00, 0x00, 0x00, 0xff, 0xff, 0xff, 0xff, 0x50, 0x00, 0x00, 0x00, 
  0xfc, 0xf6, 0xff, 0xff, 0x08, 0x00, 0x00, 0x00, 0x14, 0x00, 0x00, 0x00, 
  0x01, 0x00, 0x00, 0x00, 0x80, 0xff, 0xff, 0xff, 0xff, 0xff, 0xff, 0xff, 
  0x00, 0x00, 0x00, 0x00, 0x01, 0x00, 0x00, 0x00, 0x4f, 0xf0, 0x0d, 0x3c, 
  0x1e, 0x00, 0x00, 0x00, 0x73, 0x65, 0x71, 0x75, 0x65, 0x6e, 0x74, 0x69, 
  0x61, 0x6c, 0x5f, 0x31, 0x2f, 0x66, 0x6c, 0x61, 0x74, 0x74, 0x65, 0x6e, 
  0x5f, 0x31, 0x2f, 0x52, 0x65, 0x73, 0x68, 0x61, 0x70, 0x65, 0x00, 0x00, 
  0x02, 0x00, 0x00, 0x00, 0x01, 0x00, 0x00, 0x00, 0x50, 0x00, 0x00, 0x00, 
  0xee, 0xf7, 0xff, 0xff, 0x00, 0x00, 0x00, 0x01, 0x14, 0x00, 0x00, 0x00, 
  0x14, 0x00, 0x00, 0x00, 0x0d, 0x00, 0x00, 0x00, 0x00, 0x00, 0x00, 0x02, 
  0x34, 0x00, 0x00, 0x00, 0xd8, 0xf7, 0xff, 0xff, 0x24, 0x00, 0x00, 0x00, 
  0x73, 0x65, 0x71, 0x75, 0x65, 0x6e, 0x74, 0x69, 0x61, 0x6c, 0x5f, 0x31, 
  0x2f, 0x66, 0x6c, 0x61, 0x74, 0x74, 0x65, 0x6e, 0x5f, 0x31, 0x2f, 0x52, 
  0x65, 0x73, 0x68, 0x61, 0x70, 0x65, 0x2f, 0x73, 0x68, 0x61, 0x70, 0x65, 
  0x00, 0x00, 0x00, 0x00, 0x01, 0x00, 0x00, 0x00, 0x02, 0x00, 0x00, 0x00, 
  0x42, 0xf8, 0xff, 0xff, 0x00, 0x00, 0x00, 0x01, 0x14, 0x00, 0x00, 0x00, 
  0x14, 0x00, 0x00, 0x00, 0x0c, 0x00, 0x00, 0x00, 0x00, 0x00, 0x00, 0x02, 
  0x34, 0x00, 0x00, 0x00, 0x2c, 0xf8, 0xff, 0xff, 0x24, 0x00, 0x00, 0x00, 
  0x73, 0x65, 0x71, 0x75, 0x65, 0x6e, 0x74, 0x69, 0x61, 0x6c, 0x5f, 0x31, 
  0x2f, 0x66, 0x6c, 0x61, 0x74, 0x74, 0x65, 0x6e, 0x5f, 0x31, 0x2f, 0x73, 
  0x74, 0x72, 0x69, 0x64, 0x65, 0x64, 0x5f, 0x73, 0x6c, 0x69, 0x63, 0x65, 
  0x00, 0x00, 0x00, 0x00, 0x00, 0x00, 0x00, 0x00, 0x92, 0xf8, 0xff, 0xff, 
  0x00, 0x00, 0x00, 0x01, 0x14, 0x00, 0x00, 0x00, 0x14, 0x00, 0x00, 0x00, 
  0x0b, 0x00, 0x00, 0x00, 0x00, 0x00, 0x00, 0x02, 0x2c, 0x00, 0x00, 0x00, 
  0x7c, 0xf8, 0xff, 0xff, 0x1c, 0x00, 0x00, 0x00, 0x73, 0x65, 0x71, 0x75, 
  0x65, 0x6e, 0x74, 0x69, 0x61, 0x6c, 0x5f, 0x31, 0x2f, 0x66, 0x6c, 0x61, 
  0x74, 0x74, 0x65, 0x6e, 0x5f, 0x31, 0x2f, 0x53, 0x68, 0x61, 0x70, 0x65, 
  0x00, 0x00, 0x00, 0x00, 0x01, 0x00, 0x00, 0x00, 0x03, 0x00, 0x00, 0x00, 
  0xde, 0xf8, 0xff, 0xff, 0x00, 0x00, 0x00, 0x01, 0x14, 0x00, 0x00, 0x00, 
  0xa8, 0x01, 0x00, 0x00, 0x0a, 0x00, 0x00, 0x00, 0x00, 0x00, 0x00, 0x09, 
  0xb4, 0x01, 0x00, 0x00, 0x5c, 0xf8, 0xff, 0xff, 0x08, 0x00, 0x00, 0x00, 
  0x0c, 0x01, 0x00, 0x00, 0x20, 0x00, 0x00, 0x00, 0x00, 0x00, 0x00, 0x00, 
  0x00, 0x00, 0x00, 0x00, 0x00, 0x00, 0x00, 0x00, 0x00, 0x00, 0x00, 0x00, 
  0x00, 0x00, 0x00, 0x00, 0x00, 0x00, 0x00, 0x00, 0x00, 0x00, 0x00, 0x00, 
  0x00, 0x00, 0x00, 0x00, 0x00, 0x00, 0x00, 0x00, 0x00, 0x00, 0x00, 0x00, 
  0x00, 0x00, 0x00, 0x00, 0x00, 0x00, 0x00, 0x00, 0x00, 0x00, 0x00, 0x00, 
  0x00, 0x00, 0x00, 0x00, 0x00, 0x00, 0x00, 0x00, 0x00, 0x00, 0x00, 0x00, 
  0x00, 0x00, 0x00, 0x00, 0x00, 0x00, 0x00, 0x00, 0x00, 0x00, 0x00, 0x00, 
  0x00, 0x00, 0x00, 0x00, 0x00, 0x00, 0x00, 0x00, 0x00, 0x00, 0x00, 0x00, 
  0x00, 0x00, 0x00, 0x00, 0x00, 0x00, 0x00, 0x00, 0x00, 0x00, 0x00, 0x00, 
  0x00, 0x00, 0x00, 0x00, 0x00, 0x00, 0x00, 0x00, 0x00, 0x00, 0x00, 0x00, 
  0x00, 0x00, 0x00, 0x00, 0x00, 0x00, 0x00, 0x00, 0x00, 0x00, 0x00, 0x00, 
  0x00, 0x00, 0x00, 0x00, 0x00, 0x00, 0x00, 0x00, 0x00, 0x00, 0x00, 0x00, 
  0x00, 0x00, 0x00, 0x00, 0x00, 0x00, 0x00, 0x00, 0x00, 0x00, 0x00, 0x00, 
  0x00, 0x00, 0x00, 0x00, 0x00, 0x00, 0x00, 0x00, 0x00, 0x00, 0x00, 0x00, 
  0x00, 0x00, 0x00, 0x00, 0x00, 0x00, 0x00, 0x00, 0x00, 0x00, 0x00, 0x00, 
  0x00, 0x00, 0x00, 0x00, 0x00, 0x00, 0x00, 0x00, 0x00, 0x00, 0x00, 0x00, 
  0x00, 0x00, 0x00, 0x00, 0x00, 0x00, 0x00, 0x00, 0x00, 0x00, 0x00, 0x00, 
  0x00, 0x00, 0x00, 0x00, 0x00, 0x00, 0x00, 0x00, 0x00, 0x00, 0x00, 0x00, 
  0x00, 0x00, 0x00, 0x00, 0x00, 0x00, 0x00, 0x00, 0x00, 0x00, 0x00, 0x00, 
  0x00, 0x00, 0x00, 0x00, 0x00, 0x00, 0x00, 0x00, 0x00, 0x00, 0x00, 0x00, 
  0x00, 0x00, 0x00, 0x00, 0x00, 0x00, 0x00, 0x00, 0x00, 0x00, 0x00, 0x00, 
  0x00, 0x00, 0x00, 0x00, 0x00, 0x00, 0x00, 0x00, 0x00, 0x00, 0x00, 0x00, 
  0x00, 0x00, 0x00, 0x00, 0x20, 0x00, 0x00, 0x00, 0x17, 0xa1, 0x38, 0x3b, 
  0xa7, 0xe4, 0x54, 0x3b, 0x69, 0xb5, 0x4a, 0x3b, 0xeb, 0xd6, 0x22, 0x3b, 
  0x66, 0xfa, 0x7f, 0x3b, 0x0e, 0x21, 0x5a, 0x3b, 0xfa, 0x99, 0x61, 0x3b, 
  0x5b, 0x43, 0x44, 0x3b, 0xfb, 0x56, 0x3b, 0x3b, 0x38, 0xe8, 0x3f, 0x3b, 
  0x45, 0x1d, 0x38, 0x3b, 0x90, 0x16, 0x30, 0x3b, 0xa9, 0xd3, 0x31, 0x3b, 
  0x1e, 0x28, 0x25, 0x3b, 0x68, 0x04, 0x27, 0x3b, 0xa3, 0x6f, 0x76, 0x3b, 
  0x68, 0x2a, 0x3d, 0x3b, 0xde, 0x24, 0x3c, 0x3b, 0x1d, 0x7e, 0x74, 0x3b, 
  0x88, 0x3f, 0x4c, 0x3b, 0x80, 0x27, 0x47, 0x3b, 0xdd, 0x16, 0x80, 0x3b, 
  0x5b, 0x4b, 0x42, 0x3b, 0x29, 0xf1, 0x5f, 0x3b, 0xbc, 0x7d, 0x51, 0x3b, 
  0x74, 0xba, 0x0e, 0x3b, 0xcc, 0x6e, 0x43, 0x3b, 0x8f, 0x82, 0x2b, 0x3b, 
  0x86, 0x73, 0x60, 0x3b, 0x30, 0xeb, 0x30, 0x3b, 0x56, 0x90, 0x19, 0x3b, 
  0x8b, 0xd6, 0x4e, 0x3b, 0x12, 0x00, 0x00, 0x00, 0x74, 0x66, 0x6c, 0x2e, 
  0x70, 0x73, 0x65, 0x75, 0x64, 0x6f, 0x5f, 0x71, 0x63, 0x6f, 0x6e, 0x73, 
  0x74, 0x35, 0x00, 0x00, 0x02, 0x00, 0x00, 0x00, 0x20, 0x00, 0x00, 0x00, 
  0x50, 0x00, 0x00, 0x00, 0xb6, 0xfa, 0xff, 0xff, 0x00, 0x00, 0x00, 0x01, 
  0x14, 0x00, 0x00, 0x00, 0xa4, 0x01, 0x00, 0x00, 0x09, 0x00, 0x00, 0x00, 
  0x00, 0x00, 0x00, 0x02, 0xb0, 0x01, 0x00, 0x00, 0x34, 0xfa, 0xff, 0xff, 
  0x08, 0x00, 0x00, 0x00, 0x08, 0x01, 0x00, 0x00, 0x20, 0x00, 0x00, 0x00, 
  0x00, 0x00, 0x00, 0x00, 0x00, 0x00, 0x00, 0x00, 0x00, 0x00, 0x00, 0x00, 
  0x00, 0x00, 0x00, 0x00, 0x00, 0x00, 0x00, 0x00, 0x00, 0x00, 0x00, 0x00, 
  0x00, 0x00, 0x00, 0x00, 0x00, 0x00, 0x00, 0x00, 0x00, 0x00, 0x00, 0x00, 
  0x00, 0x00, 0x00, 0x00, 0x00, 0x00, 0x00, 0x00, 0x00, 0x00, 0x00, 0x00, 
  0x00, 0x00, 0x00, 0x00, 0x00, 0x00, 0x00, 0x00, 0x00, 0x00, 0x00, 0x00, 
  0x00, 0x00, 0x00, 0x00, 0x00, 0x00, 0x00, 0x00, 0x00, 0x00, 0x00, 0x00, 
  0x00, 0x00, 0x00, 0x00, 0x00, 0x00, 0x00, 0x00, 0x00, 0x00, 0x00, 0x00, 
  0x00, 0x00, 0x00, 0x00, 0x00, 0x00, 0x00, 0x00, 0x00, 0x00, 0x00, 0x00, 
  0x00, 0x00, 0x00, 0x00, 0x00, 0x00, 0x00, 0x00, 0x00, 0x00, 0x00, 0x00, 
  0x00, 0x00, 0x00, 0x00, 0x00, 0x00, 0x00, 0x00, 0x00, 0x00, 0x00, 0x00, 
  0x00, 0x00, 0x00, 0x00, 0x00, 0x00, 0x00, 0x00, 0x00, 0x00, 0x00, 0x00, 
  0x00, 0x00, 0x00, 0x00, 0x00, 0x00, 0x00, 0x00, 0x00, 0x00, 0x00, 0x00, 
  0x00, 0x00, 0x00, 0x00, 0x00, 0x00, 0x00, 0x00, 0x00, 0x00, 0x00, 0x00, 
  0x00, 0x00, 0x00, 0x00, 0x00, 0x00, 0x00, 0x00, 0x00, 0x00, 0x00, 0x00, 
  0x00, 0x00, 0x00, 0x00, 0x00, 0x00, 0x00, 0x00, 0x00, 0x00, 0x00, 0x00, 
  0x00, 0x00, 0x00, 0x00, 0x00, 0x00, 0x00, 0x00, 0x00, 0x00, 0x00, 0x00, 
  0x00, 0x00, 0x00, 0x00, 0x00, 0x00, 0x00, 0x00, 0x00, 0x00, 0x00, 0x00, 
  0x00, 0x00, 0x00, 0x00, 0x00, 0x00, 0x00, 0x00, 0x00, 0x00, 0x00, 0x00, 
  0x00, 0x00, 0x00, 0x00, 0x00, 0x00, 0x00, 0x00, 0x00, 0x00, 0x00, 0x00, 
  0x00, 0x00, 0x00, 0x00, 0x00, 0x00, 0x00, 0x00, 0x00, 0x00, 0x00, 0x00, 
  0x00, 0x00, 0x00, 0x00, 0x00, 0x00, 0x00, 0x00, 0x00, 0x00, 0x00, 0x00, 
  0x00, 0x00, 0x00, 0x00, 0x20, 0x00, 0x00, 0x00, 0x13, 0xbc, 0xcc, 0x37, 
  0x90, 0x13, 0xec, 0x37, 0x67, 0xc8, 0xe0, 0x37, 0x76, 0x92, 0xb4, 0x37, 
  0x34, 0xed, 0x0d, 0x38, 0xee, 0xe1, 0xf1, 0x37, 0x29, 0x2b, 0xfa, 0x37, 
  0xaa, 0xa2, 0xd9, 0x37, 0x87, 0xbd, 0xcf, 0x37, 0x18, 0xce, 0xd4, 0x37, 
  0xe7, 0x29, 0xcc, 0x37, 0x72, 0x43, 0xc3, 0x37, 0x03, 0x31, 0xc5, 0x37, 
  0x42, 0x24, 0xb7, 0x37, 0x6a, 0x34, 0xb9, 0x37, 0xd1, 0xa2, 0x08, 0x38, 
  0xdb, 0xc3, 0xd1, 0x37, 0xd6, 0xa1, 0xd0, 0x37, 0xf8, 0x8e, 0x07, 0x38, 
  0x71, 0x7d, 0xe2, 0x37, 0x68, 0xd7, 0xdc, 0x37, 0xa9, 0x09, 0x0e, 0x38, 
  0xc7, 0x73, 0xd7, 0x37, 0x16, 0x54, 0xf8, 0x37, 0xce, 0x4d, 0xe8, 0x37, 
  0x59, 0x45, 0x9e, 0x37, 0xf5, 0xb6, 0xd8, 0x37, 0xd0, 0x2f, 0xbe, 0x37, 
  0xa5, 0xe4, 0xf8, 0x37, 0x39, 0x2f, 0xc4, 0x37, 0x4c, 0x49, 0xaa, 0x37, 
  0xa7, 0x5c, 0xe5, 0x37, 0x12, 0x00, 0x00, 0x00, 0x74, 0x66, 0x6c, 0x2e, 
  0x70, 0x73, 0x65, 0x75, 0x64, 0x6f, 0x5f, 0x71, 0x63, 0x6f, 0x6e, 0x73, 
  0x74, 0x34, 0x00, 0x00, 0x01, 0x00, 0x00, 0x00, 0x20, 0x00, 0x00, 0x00, 
  0x86, 0xfc, 0xff, 0xff, 0x00, 0x00, 0x00, 0x01, 0x14, 0x00, 0x00, 0x00, 
  0xe8, 0x00, 0x00, 0x00, 0x08, 0x00, 0x00, 0x00, 0x00, 0x00, 0x00, 0x09, 
  0xf4, 0x00, 0x00, 0x00, 0x04, 0xfc, 0xff, 0xff, 0x08, 0x00, 0x00, 0x00, 
  0x8c, 0x00, 0x00, 0x00, 0x10, 0x00, 0x00, 0x00, 0x00, 0x00, 0x00, 0x00, 
  0x00, 0x00, 0x00, 0x00, 0x00, 0x00, 0x00, 0x00, 0x00, 0x00, 0x00, 0x00, 
  0x00, 0x00, 0x00, 0x00, 0x00, 0x00, 0x00, 0x00, 0x00, 0x00, 0x00, 0x00, 
  0x00, 0x00, 0x00, 0x00, 0x00, 0x00, 0x00, 0x00, 0x00, 0x00, 0x00, 0x00, 
  0x00, 0x00, 0x00, 0x00, 0x00, 0x00, 0x00, 0x00, 0x00, 0x00, 0x00, 0x00, 
  0x00, 0x00, 0x00, 0x00, 0x00, 0x00, 0x00, 0x00, 0x00, 0x00, 0x00, 0x00, 
  0x00, 0x00, 0x00, 0x00, 0x00, 0x00, 0x00, 0x00, 0x00, 0x00, 0x00, 0x00, 
  0x00, 0x00, 0x00, 0x00, 0x00, 0x00, 0x00, 0x00, 0x00, 0x00, 0x00, 0x00, 
  0x00, 0x00, 0x00, 0x00, 0x00, 0x00, 0x00, 0x00, 0x00, 0x00, 0x00, 0x00, 
  0x00, 0x00, 0x00, 0x00, 0x00, 0x00, 0x00, 0x00, 0x00, 0x00, 0x00, 0x00, 
  0x00, 0x00, 0x00, 0x00, 0x00, 0x00, 0x00, 0x00, 0x00, 0x00, 0x00, 0x00, 
  0x00, 0x00, 0x00, 0x00, 0x00, 0x00, 0x00, 0x00, 0x10, 0x00, 0x00, 0x00, 
  0xf1, 0x79, 0xcd, 0x3b, 0xf5, 0x6f, 0xa8, 0x3b, 0x8e, 0x89, 0xa3, 0x3b, 
  0x4a, 0xd6, 0xa8, 0x3b, 0x8d, 0xb5, 0x6e, 0x3b, 0xcd, 0x26, 0xaf, 0x3b, 
  0xf2, 0x4e, 0xa4, 0x3b, 0x0c, 0x01, 0xc7, 0x3b, 0xbe, 0xcb, 0x78, 0x3b, 
  0x1a, 0xe2, 0xc8, 0x3b, 0x3e, 0x65, 0xc2, 0x3b, 0x3a, 0x64, 0xbf, 0x3b, 
  0x16, 0x8f, 0x8c, 0x3b, 0x23, 0x3d, 0xb3, 0x3b, 0x77, 0xdf, 0x94, 0x3b, 
  0x89, 0xa7, 0x5c, 0x3b, 0x12, 0x00, 0x00, 0x00, 0x74, 0x66, 0x6c, 0x2e, 
  0x70, 0x73, 0x65, 0x75, 0x64, 0x6f, 0x5f, 0x71, 0x63, 0x6f, 0x6e, 0x73, 
  0x74, 0x33, 0x00, 0x00, 0x02, 0x00, 0x00, 0x00, 0x10, 0x00, 0x00, 0x00, 
  0x20, 0x00, 0x00, 0x00, 0x9e, 0xfd, 0xff, 0xff, 0x00, 0x00, 0x00, 0x01, 
  0x14, 0x00, 0x00, 0x00, 0xe4, 0x00, 0x00, 0x00, 0x07, 0x00, 0x00, 0x00, 
  0x00, 0x00, 0x00, 0x02, 0xf0, 0x00, 0x00, 0x00, 0x1c, 0xfd, 0xff, 0xff, 
  0x08, 0x00, 0x00, 0x00, 0x88, 0x00, 0x00, 0x00, 0x10, 0x00, 0x00, 0x00, 
  0x00, 0x00, 0x00, 0x00, 0x00, 0x00, 0x00, 0x00, 0x00, 0x00, 0x00, 0x00, 
  0x00, 0x00, 0x00, 0x00, 0x00, 0x00, 0x00, 0x00, 0x00, 0x00, 0x00, 0x00, 
  0x00, 0x00, 0x00, 0x00, 0x00, 0x00, 0x00, 0x00, 0x00, 0x00, 0x00, 0x00, 
  0x00, 0x00, 0x00, 0x00, 0x00, 0x00, 0x00, 0x00, 0x00, 0x00, 0x00, 0x00, 
  0x00, 0x00, 0x00, 0x00, 0x00, 0x00, 0x00, 0x00, 0x00, 0x00, 0x00, 0x00, 
  0x00, 0x00, 0x00, 0x00, 0x00, 0x00, 0x00, 0x00, 0x00, 0x00, 0x00, 0x00, 
  0x00, 0x00, 0x00, 0x00, 0x00, 0x00, 0x00, 0x00, 0x00, 0x00, 0x00, 0x00, 
  0x00, 0x00, 0x00, 0x00, 0x00, 0x00, 0x00, 0x00, 0x00, 0x00, 0x00, 0x00, 
  0x00, 0x00, 0x00, 0x00, 0x00, 0x00, 0x00, 0x00, 0x00, 0x00, 0x00, 0x00, 
  0x00, 0x00, 0x00, 0x00, 0x00, 0x00, 0x00, 0x00, 0x00, 0x00, 0x00, 0x00, 
  0x00, 0x00, 0x00, 0x00, 0x00, 0x00, 0x00, 0x00, 0x10, 0x00, 0x00, 0x00, 
  0xbc, 0x0a, 0x46, 0x38, 0xd2, 0x57, 0x22, 0x38, 0xce, 0x9e, 0x1d, 0x38, 
  0x74, 0xba, 0x22, 0x38, 0x88, 0x12, 0xe6, 0x37, 0x7a, 0xd0, 0x28, 0x38, 
  0x0e, 0x5d, 0x1e, 0x38, 0xca, 0xcd, 0x3f, 0x38, 0x4b, 0xcb, 0xef, 0x37, 
  0x71, 0x9d, 0x41, 0x38, 0xac, 0x5c, 0x3b, 0x38, 0x7b, 0x77, 0x38, 0x38, 
  0x2c, 0x79, 0x07, 0x38, 0xf4, 0xc0, 0x2c, 0x38, 0x8b, 0x7c, 0x0f, 0x38, 
  0xbf, 0xab, 0xd4, 0x37, 0x12, 0x00, 0x00, 0x00, 0x74, 0x66, 0x6c, 0x2e, 
  0x70, 0x73, 0x65, 0x75, 0x64, 0x6f, 0x5f, 0x71, 0x63, 0x6f, 0x6e, 0x73, 
  0x74, 0x32, 0x00, 0x00, 0x01, 0x00, 0x00, 0x00, 0x10, 0x00, 0x00, 0x00, 
  0xae, 0xfe, 0xff, 0xff, 0x00, 0x00, 0x00, 0x01, 0x14, 0x00, 0x00, 0x00, 
  0x40, 0x00, 0x00, 0x00, 0x06, 0x00, 0x00, 0x00, 0x00, 0x00, 0x00, 0x09, 
  0x4c, 0x00, 0x00, 0x00, 0x2c, 0xfe, 0xff, 0xff, 0x08, 0x00, 0x00, 0x00, 
  0x1c, 0x00, 0x00, 0x00, 0x02, 0x00, 0x00, 0x00, 0x00, 0x00, 0x00, 0x00, 
  0x00, 0x00, 0x00, 0x00, 0x00, 0x00, 0x00, 0x00, 0x00, 0x00, 0x00, 0x00, 
  0x00, 0x00, 0x00, 0x00, 0x02, 0x00, 0x00, 0x00, 0xc5, 0xfc, 0x01, 0x3c, 
  0x9d, 0x73, 0xf2, 0x3b, 0x12, 0x00, 0x00, 0x00, 0x74, 0x66, 0x6c, 0x2e, 
  0x70, 0x73, 0x65, 0x75, 0x64, 0x6f, 0x5f, 0x71, 0x63, 0x6f, 0x6e, 0x73, 
  0x74, 0x31, 0x00, 0x00, 0x02, 0x00, 0x00, 0x00, 0x02, 0x00, 0x00, 0x00, 
  0x10, 0x00, 0x00, 0x00, 0x1e, 0xff, 0xff, 0xff, 0x00, 0x00, 0x00, 0x01, 
  0x14, 0x00, 0x00, 0x00, 0x40, 0x00, 0x00, 0x00, 0x05, 0x00, 0x00, 0x00, 
  0x00, 0x00, 0x00, 0x02, 0x4c, 0x00, 0x00, 0x00, 0x9c, 0xfe, 0xff, 0xff, 
  0x08, 0x00, 0x00, 0x00, 0x1c, 0x00, 0x00, 0x00, 0x02, 0x00, 0x00, 0x00, 
  0x00, 0x00, 0x00, 0x00, 0x00, 0x00, 0x00, 0x00, 0x00, 0x00, 0x00, 0x00, 
  0x00, 0x00, 0x00, 0x00, 0x00, 0x00, 0x00, 0x00, 0x02, 0x00, 0x00, 0x00, 
  0x7e, 0xc6, 0x9a, 0x38, 0xcf, 0x57, 0x90, 0x38, 0x11, 0x00, 0x00, 0x00, 
  0x74, 0x66, 0x6c, 0x2e, 0x70, 0x73, 0x65, 0x75, 0x64, 0x6f, 0x5f, 0x71, 
  0x63, 0x6f, 0x6e, 0x73, 0x74, 0x00, 0x00, 0x00, 0x01, 0x00, 0x00, 0x00, 
  0x02, 0x00, 0x00, 0x00, 0x8a, 0xff, 0xff, 0xff, 0x00, 0x00, 0x00, 0x01, 
  0x14, 0x00, 0x00, 0x00, 0x14, 0x00, 0x00, 0x00, 0x04, 0x00, 0x00, 0x00, 
  0x00, 0x00, 0x00, 0x02, 0x1c, 0x00, 0x00, 0x00, 0x74, 0xff, 0xff, 0xff, 
  0x0f, 0x00, 0x00, 0x00, 0x61, 0x72, 0x69, 0x74, 0x68, 0x2e, 0x63, 0x6f, 
  0x6e, 0x73, 0x74, 0x61, 0x6e, 0x74, 0x32, 0x00, 0x00, 0x00, 0x00, 0x00, 
  0xc2, 0xff, 0xff, 0xff, 0x00, 0x00, 0x00, 0x01, 0x14, 0x00, 0x00, 0x00, 
  0x14, 0x00, 0x00, 0x00, 0x03, 0x00, 0x00, 0x00, 0x00, 0x00, 0x00, 0x02, 
  0x1c, 0x00, 0x00, 0x00, 0xac, 0xff, 0xff, 0xff, 0x0f, 0x00, 0x00, 0x00, 
  0x61, 0x72, 0x69, 0x74, 0x68, 0x2e, 0x63, 0x6f, 0x6e, 0x73, 0x74, 0x61, 
  0x6e, 0x74, 0x31, 0x00, 0x01, 0x00, 0x00, 0x00, 0x01, 0x00, 0x00, 0x00, 
  0x00, 0x00, 0x16, 0x00, 0x1c, 0x00, 0x18, 0x00, 0x17, 0x00, 0x10, 0x00, 
  0x0c, 0x00, 0x08, 0x00, 0x00, 0x00, 0x00, 0x00, 0x00, 0x00, 0x07, 0x00, 
  0x16, 0x00, 0x00, 0x00, 0x00, 0x00, 0x00, 0x01, 0x18, 0x00, 0x00, 0x00, 
  0x18, 0x00, 0x00, 0x00, 0x02, 0x00, 0x00, 0x00, 0x00, 0x00, 0x00, 0x02, 
  0x20, 0x00, 0x00, 0x00, 0x04, 0x00, 0x04, 0x00, 0x04, 0x00, 0x00, 0x00, 
  0x0e, 0x00, 0x00, 0x00, 0x61, 0x72, 0x69, 0x74, 0x68, 0x2e, 0x63, 0x6f, 
  0x6e, 0x73, 0x74, 0x61, 0x6e, 0x74, 0x00, 0x00, 0x01, 0x00, 0x00, 0x00, 
  0x01, 0x00, 0x00, 0x00, 0x00, 0x00, 0x16, 0x00, 0x20, 0x00, 0x1c, 0x00, 
  0x1b, 0x00, 0x14, 0x00, 0x10, 0x00, 0x0c, 0x00, 0x00, 0x00, 0x00, 0x00, 
  0x08, 0x00, 0x07, 0x00, 0x16, 0x00, 0x00, 0x00, 0x00, 0x00, 0x00, 0x01, 
  0x18, 0x00, 0x00, 0x00, 0x30, 0x00, 0x00, 0x00, 0x4c, 0x00, 0x00, 0x00, 
  0x01, 0x00, 0x00, 0x00, 0x00, 0x00, 0x00, 0x09, 0x64, 0x00, 0x00, 0x00, 
  0x03, 0x00, 0x00, 0x00, 0xff, 0xff, 0xff, 0xff, 0x28, 0x00, 0x00, 0x00, 
  0x02, 0x00, 0x00, 0x00, 0x0c, 0x00, 0x0c, 0x00, 0x00, 0x00, 0x00, 0x00, 
  0x08, 0x00, 0x04, 0x00, 0x0c, 0x00, 0x00, 0x00, 0x08, 0x00, 0x00, 0x00, 
  0x10, 0x00, 0x00, 0x00, 0x01, 0x00, 0x00, 0x00, 0x80, 0xff, 0xff, 0xff, 
  0xff, 0xff, 0xff, 0xff, 0x01, 0x00, 0x00, 0x00, 0x4f, 0xf0, 0x0d, 0x3c, 
  0x1e, 0x00, 0x00, 0x00, 0x73, 0x65, 0x72, 0x76, 0x69, 0x6e, 0x67, 0x5f, 
  0x64, 0x65, 0x66, 0x61, 0x75, 0x6c, 0x74, 0x5f, 0x6b, 0x65, 0x72, 0x61, 
  0x73, 0x5f, 0x74, 0x65, 0x6e, 0x73, 0x6f, 0x72, 0x3a, 0x30, 0x00, 0x00, 
  0x03, 0x00, 0x00, 0x00, 0x01, 0x00, 0x00, 0x00, 0x28, 0x00, 0x00, 0x00, 
  0x02, 0x00, 0x00, 0x00, 0x06, 0x00, 0x00, 0x00, 0x74, 0x00, 0x00, 0x00, 
  0x58, 0x00, 0x00, 0x00, 0x48, 0x00, 0x00, 0x00, 0x38, 0x00, 0x00, 0x00, 
  0x24, 0x00, 0x00, 0x00, 0x04, 0x00, 0x00, 0x00, 0xf0, 0xff, 0xff, 0xff, 
  0x0e, 0x00, 0x00, 0x00, 0x02, 0x00, 0x00, 0x00, 0x00, 0x00, 0x00, 0x0e, 
  0x0c, 0x00, 0x10, 0x00, 0x0f, 0x00, 0x00, 0x00, 0x08, 0x00, 0x04, 0x00, 
  0x0c, 0x00, 0x00, 0x00, 0x09, 0x00, 0x00, 0x00, 0x04, 0x00, 0x00, 0x00, 
  0x00, 0x00, 0x00, 0x09, 0xdc, 0xff, 0xff, 0xff, 0x16, 0x00, 0x00, 0x00, 
  0x00, 0x00, 0x00, 0x16, 0xe8, 0xff, 0xff, 0xff, 0x53, 0x00, 0x00, 0x00, 
  0x00, 0x00, 0x00, 0x53, 0xf4, 0xff, 0xff, 0xff, 0x2d, 0x00, 0x00, 0x00, 
  0x00, 0x00, 0x00, 0x2d, 0x0c, 0x00, 0x0c, 0x00, 0x0b, 0x00, 0x00, 0x00, 
  0x00, 0x00, 0x04, 0x00, 0x0c, 0x00, 0x00, 0x00, 0x4d, 0x00, 0x00, 0x00, 
  0x00, 0x00, 0x00, 0x4d, 
};
const unsigned int emg40_model_len = 7864;
